<unk>	0
<s>	0
</s>	0
▁	-2.58853
်	-3.77617
၊	-4.18574
ရ	-4.26476
ကို	-4.27475
က	-4.28861
)	-4.62455
။	-4.71191
(	-4.99318
မှာ	-5.08447
’	-5.09068
▁‘	-5.10834
သည်	-5.17788
တော့	-5.25993
▁အ	-5.29483
မ	-5.29694
နဲ့	-5.31171
ပြီး	-5.36599
▁(	-5.44115
အ	-5.49095
မှ	-5.53264
၍	-5.53332
နှင့်	-5.55239
▁မ	-5.56287
လည်း	-5.56669
တဲ့	-5.64454
ပါ	-5.65712
သော	-5.6638
တွေ	-5.68905
လို့	-5.69393
နေ	-5.78427
များ	-5.78788
ကြီး	-5.80614
ဟာ	-5.86655
တွင်	-5.97846
၏	-5.98012
သွား	-6.02134
လဲ	-6.0455
ကြ	-6.06843
ရဲ့	-6.10942
သည်။	-6.12574
တာ	-6.17679
ကာ	-6.2071
သာ	-6.22821
လာ	-6.24209
လိုက်	-6.24678
ရာ	-6.28071
နိုင်	-6.28799
ပင်	-6.28888
▁သူ	-6.3143
အောင်	-6.31804
.	-6.31892
æ	-6.32073
..	-6.32163
စ	-6.32747
း	-6.33935
သူ	-6.36925
▁သူ့	-6.38627
တို့	-6.39812
တ	-6.41103
ပဲ	-6.42428
ရှိ	-6.43402
▁ကျွန်တော်	-6.44196
သို့	-6.45323
တယ်။	-6.46229
ထား	-6.47857
ဘဲ	-6.48513
ရင်	-6.49425
လေး	-6.51269
လို	-6.51555
ဖြစ်	-6.52401
▁၁	-6.54836
ပေး	-6.54965
ဖို့	-6.55174
များကို	-6.55399
သ	-6.557
▁လူ	-6.58831
သား	-6.58918
▁ဒီ	-6.63361
့	-6.63926
ကလေး	-6.64014
ရေး	-6.64844
ပ	-6.65397
ဖြင့်	-6.66512
ခြင်း	-6.75064
▁ြ	-6.75608
ကောင်း	-6.76068
တော်	-6.7634
▁သူတို့	-6.7704
ေ	-6.77507
▁ပြော	-6.77796
ြ	-6.78138
သည့်	-6.78317
ပြန်	-6.78536
မိ	-6.78775
စား	-6.78984
ပြော	-6.79995
ပါတယ်။	-6.80323
ဆို	-6.8053
လ	-6.82195
စေ	-6.83338
ပုံ	-6.84575
▁ဖြစ်	-6.84743
ချင်	-6.85786
တွေကို	-6.86925
ကြည့်	-6.8772
▁ထို	-6.88481
မှု	-6.89142
ကတော့	-6.89285
တောင်	-6.89685
တတ်	-6.90272
▁ဟု	-6.90398
လေ	-6.90906
ခဲ့	-6.92135
တယ်	-6.92283
ဟု	-6.92439
▁တ	-6.93052
တစ်	-6.93667
ရန်	-6.94254
ရင်း	-6.94324
အား	-6.94377
စွာ	-6.94645
န	-6.94809
ဦး	-6.97328
လျှင်	-6.9746
အတွက်	-6.97952
လျက်	-6.98306
ရေ	-6.9889
လုပ်	-6.99379
ကျ	-6.99862
ယူ	-7.00407
▁တစ်	-7.01148
▁၂	-7.01418
လောက်	-7.01722
လက်	-7.01944
ာ	-7.03194
ကလည်း	-7.03712
၁	-7.04617
▁သည်	-7.04741
ပြ	-7.06922
▁လက်	-7.07999
▁လုပ်	-7.08199
▁မင်း	-7.08698
ကား	-7.09281
တယ်၊	-7.09306
▁ရှိ	-7.09862
၏။	-7.10267
ရပါ	-7.10527
လှ	-7.11359
ခံ	-7.11776
သဖြင့်	-7.12638
၂	-7.13486
ပီး	-7.1428
ထဲမှာ	-7.14493
စာ	-7.16114
▁ခင်ဗျား	-7.16459
ဖစ်	-7.18308
▁ကျုပ်	-7.19248
▁ဘာ	-7.21071
▁စိတ်	-7.23332
သိ	-7.24302
ထက်	-7.24495
မျှ	-7.24734
▁ရေ	-7.24934
တစ်ခု	-7.25163
▁အိမ်	-7.25288
တစ်ယောက်	-7.2529
ဘူး	-7.257
ထဲ	-7.26585
တင်	-7.26588
မျိုး	-7.26657
ကြား	-7.26665
▁ပြန်	-7.272
▁အဲဒီ	-7.27492
ဝင်	-7.27757
လုံး	-7.28377
ဆိုတာ	-7.28379
ချ	-7.28525
င်း	-7.28706
ပါ။	-7.29559
▁ဘယ်	-7.29836
▁သိ	-7.29961
တိုက်	-7.30169
ေး	-7.31126
▁ငါ	-7.31478
သေး	-7.3222
လေသည်။	-7.32462
▁နေ	-7.32605
▁ကျွန်တော်တို့	-7.32834
နှစ်	-7.34244
နေတဲ့	-7.35197
လူ	-7.35915
▁နောက်	-7.36229
ရော	-7.36665
ရှာ	-7.37009
စရာ	-7.37037
တိုင်း	-7.37725
ပေါ်	-7.37952
နည်း	-7.38067
▁ေ	-7.38346
▁သွား	-7.38452
လား	-7.38795
▁လာ	-7.39241
ိ	-7.39301
ဘူး။	-7.39589
ချက်	-7.40535
နာ	-7.40579
▁ကောင်း	-7.43227
▁သို့သော်	-7.44188
▁စ	-7.44466
မယ်	-7.44709
ထွက်	-7.44795
ယ	-7.44927
သံ	-7.4499
ထ	-7.45974
▁့	-7.47044
▁ကျွန်မ	-7.47368
ရောက်	-7.49586
ဝ	-7.49925
▁ကွန်ပျူတာ	-7.50184
မြင်	-7.51233
သော်လည်း	-7.51653
တို့ကို	-7.52129
လမ်း	-7.52274
လိုက်သည်။	-7.52746
နေကြ	-7.52846
▁သည်။	-7.52853
သလို	-7.52881
ကြောင့်	-7.53052
ဆုံး	-7.53673
▁ကိုယ်	-7.54081
ဒ	-7.54185
ထဲက	-7.5446
တက်	-7.54657
▁ဒီလို	-7.55002
င	-7.55637
အိမ်	-7.55917
▁အလုပ်	-7.56212
▁ကြည့်	-7.56316
လေ၏။	-7.56597
အကြောင်း	-7.56611
တွေ့	-7.56662
ပေ	-7.56751
ဖ	-7.57113
▁ဆရာ	-7.5722
ပြီ	-7.57243
▁အသက်	-7.57435
စိတ်	-7.5879
မတ်	-7.58893
▁ဦး	-7.59863
ပြု	-7.59994
ခ	-7.60042
ခင်း	-7.60145
ခေါ်	-7.60277
ချင်း	-7.60511
▁ကျောင်း	-7.60514
▁နှစ်	-7.6057
နေသည်။	-7.6098
ခန်း	-7.61032
▁ရှား	-7.61108
ပန်	-7.61206
မင်း	-7.61799
▁ကျွန်မတို့	-7.62069
▁စာ	-7.62269
ီ	-7.6256
တွေက	-7.62569
▁မောင်	-7.62951
ံ	-7.6358
ကြသည်။	-7.63793
ပေါက်	-7.63925
ပြီးလျှင်	-7.65262
ရပ်	-7.65832
မြို့	-7.65925
ကုန်	-7.67661
ရှင်	-7.67673
▁တစ်ယောက်	-7.67899
▁မိမိ	-7.68069
▁သူက	-7.68101
▁ငွေ	-7.68453
မည်	-7.68571
▁ကျွန်တော့်	-7.69415
ကျော်	-7.6963
ကြောင်း	-7.70108
▁စကား	-7.70517
နေတာ	-7.70782
တန်း	-7.71442
ရွာ	-7.71461
တည်း	-7.71528
▁ဒါပေမယ့်	-7.71639
စီ	-7.71767
သောအခါ	-7.72641
▁ထ	-7.72842
ဆီ	-7.73142
ငယ်	-7.73516
ည	-7.73693
ဖင့်	-7.73839
▁တွေ့	-7.74024
▁ရောက်	-7.74129
▁သ	-7.74137
ပဲ။	-7.75219
ဘက်	-7.758
သေ	-7.76268
ရိုး	-7.76298
ရက်	-7.76365
▁ခေါ်	-7.76687
ဘ	-7.768
ု	-7.76893
သုံး	-7.7731
ကလဲ	-7.77357
ဆိုင်	-7.775
နေသော	-7.77538
▁လိုက်	-7.77632
တဲ့။	-7.78107
ဟ	-7.78273
ထိုး	-7.78349
မေး	-7.78655
▁မြင်	-7.78989
တယ်လို့	-7.79396
ပြင်	-7.79976
ဖူး	-7.8021
မူ	-7.80361
▁ဆို	-7.80758
▁ထား	-7.80862
နား	-7.81727
ကျောင်း	-7.82012
စကား	-7.82583
ပီ	-7.82928
ို	-7.82955
▁ကိုယ့်	-7.83347
▁ဘယ်လို	-7.8338
အတိုင်း	-7.83486
နောက်	-7.84179
ထားတဲ့	-7.84204
ပါတယ်	-7.84345
ဆ	-7.84605
▁လမ်း	-7.84832
ပေါ့	-7.84943
ဝယ်	-7.8496
▁ထိုအခါ	-7.85094
ဆရာ	-7.85499
▁သုံး	-7.86332
ဗ	-7.86569
ဆောင်	-7.8689
▁ထင်	-7.86982
▁ဟို	-7.87218
တာနဲ့	-7.87565
မရှိ	-7.87728
▁ဝင်	-7.88287
စဉ်	-7.88522
ရတာ	-7.89085
▁အကြောင်း	-7.89572
▁ည	-7.89942
အဖြစ်	-7.89973
ခိုင်း	-7.908
ထုတ်	-7.90877
တူ	-7.90984
ခါ	-7.91211
ဒီ	-7.91503
▁သိပ်	-7.91602
မီ	-7.91738
▁ပေး	-7.91979
▁ဆေး	-7.92274
ထင်	-7.92416
ရုံ	-7.9247
စီး	-7.92734
သတ်	-7.92792
▁မေး	-7.93382
ဆိုရင်	-7.93748
▁စစ်	-7.93815
ပါသည်။	-7.94107
▁သေ	-7.94127
ဆင်း	-7.94168
ခင်	-7.94564
ထိုင်	-7.94891
▁မျက်နှာ	-7.9513
ပွဲ	-7.95566
ကိုလည်း	-7.95978
ပါဘူး။	-7.96021
▁လို့	-7.9612
ဆက်	-7.96344
မောင်	-7.96374
ကွာ	-7.9724
▁ရေး	-7.97479
ရယ်	-7.97516
ကော	-7.97874
ဆိုတဲ့	-7.98371
သီး	-7.98437
ရသည်။	-7.98533
သင့်	-7.99119
တပ်	-7.99186
ကိုယ်	-7.99357
နီ	-7.99405
▁တိုက်	-7.99752
င်	-8.00103
ဘာ	-8.0014
▁ငါ့	-8.00274
ပတ်	-8.00889
▁အား	-8.00896
ဝေ	-8.009
▁မြို့	-8.00908
▁ပြီးတော့	-8.01128
▁အချိန်	-8.01271
▁သူ့ကို	-8.01392
စ်	-8.01492
ပေမယ့်	-8.01524
ရဲ	-8.01846
တရား	-8.01966
▁ဒါ	-8.0241
ကြီးကို	-8.02523
ဖတ်	-8.03308
ဆေး	-8.03713
အလုပ်	-8.03746
ယ်	-8.04238
▁အလွန်	-8.0429
▁ထိုင်	-8.04372
ပန်း	-8.04586
္	-8.04735
ကြာ	-8.04737
တို့သည်	-8.0484
▁လောကသာရပျို့	-8.04932
တိုင်	-8.04965
▁အခု	-8.04998
ဂ	-8.05311
သည်ကို	-8.05349
ဖြူ	-8.05352
လိုက်တယ်။	-8.05447
▁ယခု	-8.0557
မှန်	-8.06383
ချိန်	-8.06586
ကပ်	-8.06753
▁သား	-8.06808
▁သမီး	-8.06855
ပစ်	-8.07041
မို့	-8.07249
ဆိုး	-8.07251
မယ့်	-8.07573
ပြီ။	-8.07769
ဘို့	-8.08472
▁ဖ	-8.08704
▁မသိ	-8.08875
▁ဘ	-8.09187
ထားသော	-8.09189
▁ရွှေ	-8.09513
ကြတယ်။	-8.09683
င့်	-8.10234
တစ်ဦး	-8.10375
ဝတ်	-8.1074
တိ	-8.10796
▁မီး	-8.11294
▁တော်	-8.11454
▁အသံ	-8.11951
နေ့	-8.11964
ရောင်း	-8.11971
လိုက်တာ	-8.12044
ဒါ	-8.12576
ဆိုတော့	-8.12768
လွန်	-8.12955
▁ကား	-8.13059
▁ငါး	-8.131
▁တော်တော်	-8.13203
စပ်	-8.13228
စမ်း	-8.13451
စု	-8.13942
ရည်	-8.13958
ဗျာ။	-8.14168
▁ခပ်	-8.14407
တည်	-8.1471
ရိုက်	-8.14959
▁ပြ	-8.15005
မင်	-8.15082
တယ်ဆိုတာ	-8.1511
မာ	-8.1521
ပေါ့။	-8.15217
ဝါ	-8.15358
▁ထွက်	-8.15518
များက	-8.15862
တို့၏	-8.16064
အေး	-8.16374
▁တရား	-8.16428
▁တစ်ခု	-8.16515
ပေါ်မှာ	-8.16588
မဝတ်ရည်	-8.16606
▁မရှိ	-8.16656
▁စား	-8.16704
စက်	-8.1709
သွားသည်။	-8.17107
နော်	-8.17124
ရအောင်	-8.17217
▁မိုး	-8.17363
ဏ္	-8.17445
▁ရွာ	-8.17616
တန်	-8.17657
နှစ်ယောက်	-8.17692
တွေနဲ့	-8.18049
နေတယ်။	-8.18539
သောက်	-8.18572
တွေဟာ	-8.18685
▁တို့	-8.19188
ဟန်	-8.19281
ကိစ္စ	-8.19329
သစ်	-8.19421
ဗျာ	-8.20063
▁ကလေး	-8.20269
ရှည်	-8.2042
လာသည်။	-8.2044
ပေါင်း	-8.20586
ကဲ့သို့	-8.20665
▁ဆ	-8.20755
လျှောက်	-8.20799
ရယ်၊	-8.21349
▁ဘာမှ	-8.21492
▁ဖြစ်ပါတယ်။	-8.21926
ထောင်	-8.2197
▁မဟုတ်	-8.22045
သမား	-8.22181
ချစ်	-8.22256
ဘုရား	-8.22296
▁ဘုရား	-8.22451
▁ကဲ	-8.22465
ပါး	-8.22563
▁ဒါနဲ့	-8.22767
ဘူး၊	-8.23091
ကဲ	-8.23106
ထူး	-8.23187
ပိုင်း	-8.23249
သက်	-8.23341
▁ပန်း	-8.23561
ကွယ်	-8.23653
နေရ	-8.23674
▁သံ	-8.2424
▁မြင်း	-8.24259
ပါပဲ။	-8.24288
▁ခု	-8.24377
ခဲ့သည်။	-8.24492
မှန်း	-8.24816
▁သည်တော့	-8.25089
နေရာ	-8.25548
ပညာ	-8.25656
▁ဝယ်	-8.25818
စစ်	-8.25936
န်	-8.26178
▁များ	-8.26274
ိတ်	-8.26289
▁ပ	-8.26539
စောင့်	-8.26756
တာပဲ	-8.27015
▁ကြား	-8.27043
▁နေရာ	-8.27163
▁အေးမိစံ	-8.27194
▁လေး	-8.27199
ကိုင်	-8.27247
▁အားလုံး	-8.27604
ပြည်	-8.27656
သူများ	-8.28076
▁ယူ	-8.28132
ရောင်	-8.28385
ရတဲ့	-8.28388
တာကို	-8.28415
ပြီးနောက်	-8.28988
တုန်းက	-8.29032
ဖြစ်သည်။	-8.29269
▁တက်	-8.29335
အထိ	-8.29339
▁သင်	-8.2935
▁တောင်	-8.29506
ငွေ	-8.29592
▁အေးငြိမ်း	-8.29718
ပေါ်တွင်	-8.2983
▁ပါ	-8.29946
ပူ	-8.29958
ွန်	-8.29983
▁နောက်ဆုံး	-8.30023
တွင်း	-8.30119
▁ဆက်	-8.30205
ပျက်	-8.30245
သလဲ	-8.30526
▁အင်မတန်	-8.30663
ပဲ၊	-8.30686
များသည်	-8.30734
တို့က	-8.30771
ဏ	-8.30885
ကြီးက	-8.31038
▁အိပ်	-8.31268
ခဲ	-8.3179
အိုး	-8.32089
ပေ။	-8.3221
▁မန	-8.32684
မဟုတ်	-8.32858
တဲ့အခါ	-8.32999
မဲ	-8.3306
▁ဒါကြောင့်	-8.33251
ရုပ်	-8.33486
လား။	-8.33502
▁လျှောက်	-8.33506
သည်ဟု	-8.33537
▁ဖြစ်သည်။	-8.33548
ထိ	-8.33817
ပွင့်	-8.33848
ထပ်	-8.34092
▁လေ	-8.34371
▁မိန်းမ	-8.34579
ဓ	-8.34696
ရတယ်။	-8.34878
▁ချစ်	-8.3516
မြ	-8.35295
တို	-8.35376
မဲ့	-8.35469
▁ဒီတော့	-8.3566
▁မျက်စိ	-8.35988
မြင့်	-8.36032
လု	-8.36076
ဇ	-8.36214
ဖွင့်	-8.365
မျက်နှာ	-8.36661
ပြား	-8.36759
ီး	-8.36982
▁မိန်းကလေး	-8.37417
လည်	-8.3745
▁စဉ်းစား	-8.3752
ဆွဲ	-8.376
▁မြေ	-8.37687
▁အခန်း	-8.38106
မြတ်	-8.38108
ဖြေ	-8.38467
တွဲ	-8.38701
မိုး	-8.38889
ပါဘူး	-8.38915
ဘဝ	-8.39088
မှာလည်း	-8.39163
တု	-8.39229
▁ကျုပ်တို့	-8.39549
▁နည်းနည်း	-8.39848
ဆန်း	-8.39853
တ်	-8.39862
▁ဆရာတော်	-8.39899
ယာ	-8.39905
▁တစ်နေ့	-8.40044
▁ယောက်	-8.40046
ဆင်	-8.40062
စေ့	-8.40154
ာန	-8.40387
မှာလဲ	-8.4041
ခန့်	-8.40469
▁သူမ	-8.40694
ုံ	-8.40747
အကြောင်းကို	-8.40934
ခဲ့တဲ့	-8.41117
ရွက်	-8.41196
စင်	-8.41375
စုံ	-8.41576
ပ်	-8.41675
တင်း	-8.41701
▁အေးငြိမ်းက	-8.41763
▁စိမ်း	-8.4178
▁ပညာ	-8.42082
တိုး	-8.42293
▁ရောက်လာ	-8.42407
မှာပဲ	-8.42548
▁လ	-8.42568
သဘော	-8.42606
▁ကျ	-8.42693
တစ်လုံး	-8.42693
▁ပထမ	-8.42747
ပြေး	-8.42971
▁ကျွန်တော်က	-8.4303
သမျှ	-8.43404
လား၊	-8.43447
နက်	-8.43652
နေလေသည်။	-8.4369
မြောက်	-8.43951
ဟေ့	-8.43967
ခံရ	-8.44406
ခွဲ	-8.44806
ပေါ	-8.4485
န်း	-8.44893
▁ရှင်	-8.45055
▁ကြီး	-8.45154
တောင်း	-8.45478
ခြေ	-8.45978
ကတည်းက	-8.46024
နု	-8.46146
တွေ၊	-8.46414
ပို့	-8.46543
▁ရုပ်	-8.46567
▁အဲဒီလို	-8.46768
ညီ	-8.46787
▁ဖတ်	-8.46908
နယ်	-8.46996
မ်း	-8.47038
သလား	-8.47117
မယ်။	-8.47181
ိုင်	-8.47201
▁ဖွင့်	-8.47232
သွားကြ	-8.47316
ဗျ။	-8.47329
▁ခေါင်း	-8.47342
သောကြောင့်	-8.47593
များနှင့်	-8.47594
ထဲတွင်	-8.47628
▁နာရီ	-8.47752
ဆန်	-8.47794
ပီ။	-8.48155
မြဲ	-8.48184
▁ရှိနေ	-8.48543
ူ	-8.48753
▁ကျော်	-8.48846
စိုက်	-8.4922
ပါဦး	-8.49241
▁၁၂	-8.49247
ုတ်	-8.49476
▁သတင်း	-8.49536
မီး	-8.49743
လာခဲ့	-8.49888
ခွင့်	-8.49919
ရှေ့	-8.50232
▁အဲဒါ	-8.50303
▁အောင်	-8.50477
▁ပို	-8.5058
ခဲ့ပါတယ်။	-8.50584
▁တူ	-8.50664
လေးတွေ	-8.50812
▁ကျွန်	-8.50922
တီး	-8.51465
မသိ	-8.5147
လင်း	-8.51697
ဖော်	-8.51782
ဟော	-8.51825
ဗျ	-8.52099
▁ကျန်	-8.52169
ကောင်	-8.52254
လွန်း	-8.5232
ဆယ်	-8.52425
ဟြု	-8.5246
ကလေးကို	-8.52482
ဖက်	-8.52498
▁လူတစ်ယောက်	-8.52544
▁ဟုတ်	-8.52603
တော်မူ	-8.5276
ဆဲ	-8.5304
▁ကြာ	-8.53162
တဲ့လူ	-8.53229
တာပေါ့	-8.53361
စာအုပ်	-8.53433
▁ဆိုတဲ့	-8.53441
မက်	-8.53533
မည်။	-8.53894
▁လှမ်း	-8.54117
ခွက်	-8.54129
ကန်	-8.54167
ော	-8.54177
သလောက်	-8.54191
အိပ်	-8.54287
ဘက်က	-8.54511
▁မနွေ	-8.54642
▁ကဗျာ	-8.54687
ထည့်	-8.54805
ား	-8.55366
▁နား	-8.55401
သွားတယ်။	-8.55781
▁ထိုး	-8.55813
▁မင်းသုဝဏ်	-8.55873
▁အခြား	-8.559
တစ်ခုကို	-8.56054
▁ဆိုတာ	-8.56173
သင်	-8.56229
အိတ်	-8.56288
▁စာအုပ်	-8.56298
အရ	-8.56862
မှတ်	-8.56977
▁တော	-8.57043
▁နားလည်	-8.5724
မည့်	-8.57241
▁တယ်။	-8.57286
▁ရယ်	-8.5752
▁တကယ်	-8.57537
ချုပ်	-8.57585
လှည့်	-8.57615
ဝေး	-8.57664
ကွက်	-8.57692
▁သူငယ်ချင်း	-8.57704
▁ပြောပြ	-8.57726
လိုက်၏။	-8.57746
သမီး	-8.57856
▁င	-8.57881
ထိပ်	-8.57887
▁လူတွေ	-8.57917
▁ထမင်း	-8.57956
ကျတော့	-8.58003
မွေး	-8.58237
ှ	-8.58278
▁ဘဝ	-8.58669
ယောင်	-8.5868
▁ထို့ကြောင့်	-8.58754
ရှိတဲ့	-8.59089
ဘူးလား	-8.59154
မော	-8.59171
နိုင်ငံ	-8.59179
ထံ	-8.592
▁သည်လို	-8.59656
▁ဟော	-8.59702
ထဲမှ	-8.5971
▁မောင်စံရှားလည်း	-8.59781
▁မှန်	-8.60308
▁မြ	-8.60962
▁သီချင်း	-8.61248
▁ပစ္စည်း	-8.61285
▁ရိုက်	-8.61588
▁တွေး	-8.61619
▁သဘော	-8.61714
လိုက်ရ	-8.61812
ခဲ့ကြ	-8.61823
▁ခြေ	-8.61979
တစ်ကောင်	-8.62142
အတွင်း	-8.62216
▁မိတ်ဆွေ	-8.6233
ပြောင်း	-8.62331
တော့။	-8.62373
ခဲ့ရ	-8.62403
ချောင်း	-8.62434
တွက်	-8.62545
လောင်း	-8.62616
▁ဖြစ်နေ	-8.62672
မည်ဟု	-8.62991
▁ခုနှစ်	-8.63004
▁ဗ	-8.63018
ကျယ်	-8.6311
▁ထို့နောက်	-8.6322
လှမ်း	-8.63439
▁မြန်မာ	-8.63631
န့်	-8.63648
လေးကို	-8.63752
▁အမှတ်	-8.63927
ဲ	-8.63962
ဖျား	-8.64009
ဝိုင်း	-8.64154
▁သောက်	-8.64158
တ္တ	-8.64175
တစ်ပါး	-8.642
ကွင်း	-8.64362
▁ရန်ကုန်	-8.64595
ုပ်	-8.64617
▁တချို့	-8.64623
အမှု	-8.64662
▁ရက်	-8.64712
အနေနဲ့	-8.64788
▁ဆွဲ	-8.64833
ထုပ်	-8.64853
ပု	-8.65045
ဟုတ်	-8.65286
ဖိုး	-8.65455
ခေါက်	-8.65506
တာပဲ။	-8.6565
ပျောက်	-8.6572
▁နတ်	-8.65785
ခတ်	-8.65812
မယ်၊	-8.65881
▁တစ်ခါ	-8.66022
သွားပြီး	-8.66071
ရမယ်။	-8.66187
▁နင်	-8.6633
မှာတော့	-8.66394
ငါ	-8.6643
ချေ	-8.66736
▁အတွက်	-8.66737
ုန	-8.6682
လုံ	-8.66882
ခနဲ	-8.66901
ကွ	-8.6708
▁ကိစ္စ	-8.67101
ဆုံ	-8.67152
▁သတိရ	-8.67197
▁ကုန်	-8.67346
တာက	-8.67386
တော့သည်။	-8.67415
▁အမှန်	-8.67565
▁ကျပ်	-8.67665
▁ရုတ်တရက်	-8.67872
▁အံ့သြ	-8.6789
ရှင်း	-8.6793
▁ကျောက်	-8.67947
▁အမေ	-8.68043
ပေးလိုက်	-8.68187
▁ဆိုင်	-8.68224
ကိုသာ	-8.68326
ပြည့်	-8.68407
ရိ	-8.68434
ွတ်	-8.68462
▁ဟင်း	-8.68472
▁ဓ	-8.68501
တာပေါ့။	-8.68574
▁အရေး	-8.68888
▁တခြား	-8.68954
အုပ်	-8.69003
▁ရပ်	-8.69011
သန်း	-8.69115
ပြီးတော့	-8.69189
လော	-8.69218
▁စက်	-8.69285
▁ကြက်	-8.69359
တုံး	-8.69388
ကျွေး	-8.6946
▁ပြေး	-8.69558
▁န	-8.69575
▁တူးတူး	-8.69628
▁ဘယ်လောက်	-8.69798
သည်မှာ	-8.6984
ရီ	-8.69879
စွဲ	-8.69889
နေ၏။	-8.69935
ပစ္စည်း	-8.7016
ွန်း	-8.70222
▁နိုင်ငံ	-8.70289
ကွဲ	-8.70308
ထွေး	-8.70313
ဘဲ။	-8.70406
▁ထပ်	-8.70423
တော	-8.70443
အချိန်	-8.7045
လာပြီး	-8.7064
လာတာ	-8.70652
စည်း	-8.70829
လီ	-8.70884
▁မောင်စံရှားက	-8.71088
ထားသည်။	-8.71291
▁များစွာ	-8.71772
သော်	-8.71853
ကျိုး	-8.71885
▁ဘုန်းတော်ကြီး	-8.72015
ရှိသော	-8.72175
▁ရှေ့	-8.72232
နီး	-8.72397
▁အစိုးရ	-8.72471
မေ	-8.72546
▁ဖုန်း	-8.72592
ဝံ့	-8.72723
မြစ်	-8.72789
ပါစေ	-8.73018
ခြား	-8.73133
▁တွေ့ရ	-8.73176
▁နားထောင်	-8.73282
အပ်	-8.73395
▁သို့ရာတွင်	-8.73624
သွင်း	-8.73832
စိုး	-8.73843
ဟောင်း	-8.7386
▁သွေး	-8.73999
ဟင်း	-8.74044
များ၊	-8.74065
တွေရဲ့	-8.74127
ကြရ	-8.74279
ချည်း	-8.74815
လွတ်	-8.74856
ညို	-8.74902
▁အနည်းငယ်	-8.75003
အဖွဲ့	-8.751
မြေ	-8.75249
▁တင်	-8.7531
ထွန်း	-8.75375
ကြပါတယ်။	-8.75392
ဖြစ်သော	-8.7544
ော့	-8.75636
အို	-8.75651
▁အြ	-8.7571
ခင်ဗျာ။	-8.7578
သည်နှင့်	-8.75835
ကင်း	-8.75856
ဲ့	-8.75868
မွန်	-8.75931
ပျော်	-8.75965
▁ဒုတိယ	-8.7617
ကိုယ်တိုင်	-8.76205
ခေတ်	-8.76487
▁ပြည်	-8.76494
လေတော့	-8.76521
စေချင်	-8.76527
သွေး	-8.76666
ရှ	-8.76725
▁ကြိုးစား	-8.76761
ရှိသည်။	-8.76856
ခြင်း၊	-8.76901
▁ရှာ	-8.76924
တံခါး	-8.7701
▁ခဏ	-8.77041
▁စောင့်	-8.77132
ကြွ	-8.77215
▁ချ	-8.77227
ဖြတ်	-8.77292
လာကြ	-8.77576
ကြိုက်	-8.77645
တေ	-8.77724
▁ဝိုင်း	-8.77724
သူက	-8.77981
ဖန်	-8.78097
ဖြစ်နေ	-8.781
ဝိ	-8.78137
▁မင်းတို့	-8.78181
▁အသုံးပြု	-8.78341
ကောက်	-8.78458
▁အောက်	-8.78484
ညာ	-8.78658
▁ဒ	-8.78772
နတ်	-8.78869
▁ရှေး	-8.78994
▁ပု	-8.79129
▁ပုံ	-8.79204
▁မမ	-8.79227
ကြည်	-8.79494
▁စကားပြော	-8.79518
မူး	-8.79538
▁ဂ	-8.79618
နှင့်အတူ	-8.79641
▁ကိုစံရှား	-8.8018
▁ကျွန်တော့်ကို	-8.80227
မရ	-8.80785
ခိုး	-8.80816
ပြေ	-8.80942
ခု	-8.8102
▁ဇာတ်	-8.81063
နေတယ်	-8.81069
လင်	-8.81197
တာ၊	-8.81211
ဖြစ်၍	-8.81223
ရွှေ	-8.81264
တုန်း	-8.81433
ခဲ့သော	-8.81619
▁မကောင်း	-8.81699
နှ	-8.81728
လူမျိုး	-8.8178
ဖွယ်	-8.81822
▁အတင်း	-8.82155
▁အမျိုးသမီး	-8.82293
ချို	-8.82352
ငှါး	-8.82433
တံ	-8.82483
▁လူထု	-8.82499
ကြံ	-8.82508
▁ကဗျာဆရာ	-8.82526
▁နည်း	-8.82828
သေးသည်။	-8.8291
▁ဘေး	-8.82944
ပါ၊	-8.83035
▁၁၁	-8.83198
ခြောက်	-8.83292
ပြီးမှ	-8.83301
ရှု	-8.83339
အားလုံး	-8.83437
ဗျာ၊	-8.83496
သည့်အခါ	-8.83506
ကြ၏။	-8.83527
▁မေမေ	-8.83542
▁ဆင်	-8.83754
ကျွန်း	-8.8378
▁ယုံကြည်	-8.83803
မလဲ	-8.83925
စဉ်းစား	-8.84079
သွားလေသည်။	-8.84166
▁မောင်စံရှား	-8.8428
▁၁။	-8.84326
ရမည်	-8.84362
▁္တလေး	-8.84467
ိုင်း	-8.84589
တဲ့အတွက်	-8.84724
လာတဲ့	-8.84772
ဆီက	-8.84778
▁ပြုံး	-8.84778
စောင်း	-8.85033
▁ချက်	-8.85035
ရစ်	-8.85137
စည်	-8.85231
ဝင်း	-8.85255
▁ဆရာဝန်	-8.85265
မြင်း	-8.85482
▁သက်	-8.85642
▁ဆင်း	-8.85716
▁မေ	-8.85751
မယ်လို့	-8.85788
▁သူ၏	-8.85818
▁မျက်	-8.85963
ခင်ဗျား	-8.86054
ပြာ	-8.86056
ဆိုပြီး	-8.86363
ဟဲ့	-8.86431
အပေါ်	-8.86583
ဝါး	-8.86664
▁ရထား	-8.86729
▁လို	-8.86878
ရံ	-8.86962
ထည်	-8.87056
▁အသား	-8.87113
လာတယ်။	-8.87156
ကြို	-8.87279
ကျပ်	-8.87285
ကူး	-8.87397
ပိုင်	-8.87475
▁စု	-8.87524
ကလေးတွေ	-8.87527
အခါ	-8.8778
ပြင်း	-8.87831
ကြတဲ့	-8.87874
▁ဖေဖေ	-8.87965
ပေါ်က	-8.88052
▁အတော်	-8.88214
ထားတာ	-8.88237
▁အခါ	-8.88485
သီ	-8.88609
နင်း	-8.88638
ဘယ်	-8.88641
ပြန်သည်။	-8.88652
▁ဒုက္ခ	-8.88769
▁ကူး	-8.88794
ကံ	-8.88932
လျက်ရှိ	-8.88936
▁နာမည်	-8.89087
▁အဖေ	-8.89143
▁တာဝန်	-8.89186
တွေမှာ	-8.89388
ဇာ	-8.89463
▁တောင်း	-8.8977
▁ဝ	-8.89825
ဝန်	-8.89891
▁သတ်	-8.89898
မရီ	-8.89997
လွဲ	-8.90131
လွယ်	-8.90137
ထောက်	-8.90168
▁မှတ်	-8.9028
ရမ်း	-8.9048
လိမ့်မယ်	-8.90525
▁ရုပ်ရှင်	-8.9058
လေ။	-8.90661
ခရီး	-8.90848
▁ပိုက်ဆံ	-8.90937
ကြမ်း	-8.91084
လေ၊	-8.91086
ထောင့်	-8.91087
▁ကျောင်းသား	-8.91104
▁ယောကျ်ား	-8.91116
▁အာ	-8.91125
▁ထိုသူ	-8.91394
ထဲသို့	-8.91415
ပေါ်သို့	-8.91824
▁လူကြီး	-8.91843
ပြတ်	-8.91897
ပိတ်	-8.91899
ခင်ဗျ။	-8.9231
▁ဘုန်းကြီး	-8.92736
စိမ်း	-8.9276
မောင်း	-8.93016
မပြော	-8.93031
▁သန	-8.93039
တာပါ။	-8.93067
▁ထောင်	-8.93077
တဲ့၊	-8.93203
ိုက်	-8.93286
▁္တာ	-8.93531
ခက်	-8.93541
ထားပြီး	-8.93672
▁ရောင်း	-8.93695
▁ထုတ်	-8.93742
▁ဒကာ	-8.93867
▁ဝတ်	-8.9389
▁အလုပ်လုပ်	-8.93976
ဓာတ်	-8.94006
ကျမ်း	-8.94097
ဆိုလျှင်	-8.94174
ကူ	-8.94263
ရမယ်	-8.94509
▁ဘယ်သူ	-8.94532
သားတွေ	-8.94625
ကြလေ၏။	-8.94644
ချိုး	-8.94674
▁ဖြေ	-8.94724
▁တံခါး	-8.9473
အရပ်	-8.94751
▁ကြောက်	-8.94835
ခေါင်	-8.94929
ရောက်လာ	-8.95016
▁ခလောက်နို့	-8.95026
လပ်	-8.95076
ဒေသ	-8.95149
လိပ်	-8.95246
လေ့ရှိ	-8.9527
▁ကြားရ	-8.95448
ရှိတယ်။	-8.95503
စနစ်	-8.95507
▁ကျုပ်က	-8.95624
စမ်းပါ	-8.95732
ည့်သည်	-8.95758
ရောက်တော့	-8.95808
▁အော်	-8.95839
▁ကောက်	-8.9593
အောက်	-8.96121
နေလို့	-8.96154
သန်	-8.96196
▁ဖိုးသူတော်	-8.96199
▁ဓာတ်	-8.96218
▁ဘုရင်	-8.96267
တာလဲ	-8.96377
▁ချီ	-8.96496
လယ်	-8.9662
ချေ။	-8.96996
ရ၏။	-8.97001
ထိုက်	-8.97024
▁ပေါ်	-8.97141
အချက်	-8.97176
တစ်ခါ	-8.97306
▁ထည့်	-8.97313
ပို	-8.97394
▁ဒီနေ့	-8.97427
▁အကျင်္ီ	-8.97429
မိသည်။	-8.97497
ကိုင်း	-8.97677
▁ပြန်လာ	-8.97688
▁လာရောက်	-8.97746
▁အေး	-8.97872
မှုကို	-8.97884
လိမ်	-8.97886
▁အဲဒီတော့	-8.98038
▁ကောင်းကောင်း	-8.98198
▁ပျောက်	-8.98198
နေသည်ကို	-8.98228
အိမ်မှာ	-8.98308
▁ဘယ့်နှယ်	-8.9835
▁ဘာမျှ	-8.98427
င်္ံ	-8.98506
▁မဟုတ်ဘူး	-8.98541
▁ခ	-8.98599
▁္အ	-8.98621
▁အစ်မ	-8.98697
▁လှ	-8.98738
ကျွန်တော်	-8.98753
ဒေ	-8.98767
▁နှစ်ယောက်	-8.98811
ရုံး	-8.98834
မတ်ထွေး	-8.98874
▁ပြု	-8.98897
တောက်	-8.9904
▁ပျော်	-8.99057
ခဲ့တာ	-8.99195
▁ကမ္ဘာ	-8.99521
သူ့	-8.99539
▁ဟန်	-8.99579
▁သူခိုး	-8.99589
မှူး	-8.99622
▁နေ့	-8.99648
သေးတယ်။	-8.99658
▁အိမ်ထောင်	-8.99714
▁မဟုတ်လား	-8.99847
▁တယ်	-8.99849
ဖောက်	-8.99912
▁သေသေချာချာ	-8.99954
▁အသိ	-8.99977
ဒေါ	-9.00047
ပိုက်	-9.0008
မနေ	-9.00102
မ္မာ	-9.00152
အသံ	-9.00228
နိုင်တဲ့	-9.00346
▁အစ်ကို	-9.00507
မလား	-9.00512
▁ဆံပင်	-9.0058
▁ဖော်ပြ	-9.00588
▁ကျင့်	-9.00642
▁မရ	-9.00707
စော	-9.00717
ာန်	-9.00725
မန်	-9.00784
ရပါတယ်။	-9.0086
▁အကျိုး	-9.00932
ကြိုး	-9.00935
နေကြသည်။	-9.00965
ဟူ၍	-9.01115
ပါပဲ	-9.01203
သူတွေ	-9.01222
▁ကိုသိန်းမောင်	-9.01241
ပါပြီ။	-9.01311
ကု	-9.0138
▁ပွဲ	-9.01399
ခင်ဗျာ	-9.01936
သတဲ့။	-9.01971
မိန်းမ	-9.01977
ငါး	-9.02204
▁စာရေး	-9.02481
ထွက်လာ	-9.02533
▁္တ	-9.02606
▁မွေး	-9.02608
စ္စာ	-9.02662
▁အရပ်	-9.02664
ဆီး	-9.02673
▁မြနု	-9.02735
ဒဏ်	-9.02738
စွန့်	-9.02772
▁အများကြီး	-9.0278
ခွါ	-9.028
ဖြစ်တဲ့	-9.02806
အခန်း	-9.02834
▁အပြစ်	-9.02846
လက်ခုပ်သံများ	-9.02857
အပြင်	-9.03025
▁ပေါက်	-9.03031
ဖြစ်ပြီး	-9.03032
▁လူငယ်	-9.03037
လတ်	-9.03091
တဲ	-9.03131
တူး	-9.03265
ဘက်သို့	-9.03282
ပမာ	-9.03337
တီ	-9.03364
▁နင့်	-9.03657
ကြောင်း။	-9.03772
ိနဂ	-9.04139
လိုက်ပါ	-9.04182
ရမည်။	-9.04268
က္က	-9.04383
▁ဖြတ်	-9.04394
▁အရေးကြီး	-9.04432
ကြပ်	-9.04469
သိမ်း	-9.04477
သွားတဲ့	-9.04481
ကြလေသည်။	-9.04483
▁အမှု	-9.04643
လောက်အောင်	-9.04756
▁ကိုင်း	-9.04816
အရာ	-9.04822
▁ခံစား	-9.04961
▁စီပွါးရေး	-9.05055
▁ပင်လယ်	-9.05059
ပြိုင်	-9.0507
▁ရခိုင်သူမြတ်	-9.05089
▁ချက်ချင်း	-9.05171
ကြတာ	-9.05241
▁တည်	-9.05281
▁မျက်လုံး	-9.05401
▁အပြင်	-9.05402
ြု	-9.05442
ဖြစ်သူ	-9.0552
▁တဲ	-9.05607
▁ပြောဆို	-9.05647
နာရီ	-9.0573
အရွယ်	-9.05739
အင်း	-9.05748
▁ပို၍	-9.05809
တတ်သော	-9.05943
နေရာမှ	-9.06001
နေတုန်း	-9.06008
▁နေထိုင်	-9.0602
▁ဒေါသ	-9.06156
မလာ	-9.06247
▁လေ့လာ	-9.06369
အနက်	-9.0647
လေရာ	-9.06619
လန့်	-9.0663
▁ဝင်း	-9.06681
▁ခေတ်	-9.06862
▁သူများ	-9.06967
ရိပ်	-9.06988
▁ကလေးတွေ	-9.07019
လိုက်ကြ	-9.07133
▁ချမ်းသာ	-9.07157
▁အရင်	-9.07178
မယ်ဆိုရင်	-9.07241
ခြံ	-9.07247
▁ပါးစပ်	-9.07387
▁ဘကြီးဆောင်	-9.07467
▁အဓိပ္ပာယ်	-9.07491
▁ဘကြီး	-9.07533
ကျွမ်း	-9.07534
▁နောင်	-9.07567
ကြီးတွေ	-9.07605
ပီးတော့	-9.07655
▁ဦးလှ	-9.07749
ွ	-9.07923
မကောင်း	-9.08109
သိန်း	-9.08138
ရခါး	-9.08181
ရွတ်	-9.08299
တတ်တဲ့	-9.08395
▁အမည်	-9.08609
တို့မှာ	-9.08613
မထား	-9.08686
ထားခဲ့	-9.08768
အဖို့	-9.08784
လူတွေ	-9.08801
▁ဝါ	-9.08868
▁ကျွန်ုပ်	-9.08925
▁ပြောလိုက်	-9.08952
▁ငို	-9.08976
ရု	-9.09109
ကြည့်ပြီး	-9.0914
မှောင်	-9.09155
▁အေ	-9.09195
တဲ့အခါမှာ	-9.09221
▁ထွက်လာ	-9.09226
▁ကြိုး	-9.09408
ရော။	-9.09501
▁ထိုသို့	-9.09565
တို့၊	-9.09593
ရလေသည်။	-9.09664
လေ့	-9.09668
လိမ့်	-9.09718
▁ဖြစ်လာ	-9.09877
စာကို	-9.10051
▁တိုးတက်	-9.10132
နေသည့်	-9.10142
ပစ်လိုက်	-9.10239
တော့ဘဲ	-9.10251
ခုံ	-9.10336
လိုက်ပြီး	-9.10437
▁အိမ်ရှေ့	-9.10454
▁အဲ	-9.105
▁ငါတို့	-9.107
▁တွဲ	-9.10718
▁သီလ	-9.1073
ခြင်း။	-9.10846
ခေါင်း	-9.10857
ပျံ	-9.10884
ဆရာတော်	-9.1092
လမ်း၊	-9.11051
ကျုပ်	-9.11118
▁လှေ	-9.11145
▁အတွင်း	-9.11145
▁တစ်ချက်	-9.11176
ကျင်	-9.11243
မဆို	-9.11433
မိတယ်။	-9.11631
ဘေး	-9.11659
▁ပွင့်	-9.11748
ကြီးများ	-9.11958
သင်း	-9.1203
နဲ	-9.12196
ရှိနေ	-9.12212
▁လောက်	-9.12225
များတွင်	-9.12321
ပါပြီ	-9.12374
ဆစ်	-9.12551
▁ခုလို	-9.12654
ကြရာ	-9.12684
▁ဘာတွေ	-9.12797
▁ခင်လွမ်း	-9.12837
ဘိုး	-9.12887
▁သစ်ပင်	-9.1296
▁ပေါင်း	-9.13099
▁မဟုတ်လား။	-9.13129
အစ	-9.13192
▁အနုပညာ	-9.13286
▁ရဟန်း	-9.13289
ခိုင်	-9.13338
လိ	-9.13353
စွမ်း	-9.13457
ချမ်းသာ	-9.13488
▁သဘောကျ	-9.13647
ကြပါ	-9.13663
ရှေ့မှာ	-9.13706
ကာလ	-9.13711
▁တပ်	-9.13855
ဘက်ကို	-9.13901
▁သို့	-9.1405
▁၂။	-9.14078
တွေလည်း	-9.14136
ိန်	-9.14159
ဆီသို့	-9.14166
အိမ်သို့	-9.14254
အမေ	-9.14299
▁အထူး	-9.14379
မလို	-9.14439
▁တိုင်းပြည်	-9.14577
▁အခြေအနေ	-9.14586
▁သူသည်	-9.14684
▁ပြောလျှင်	-9.14738
▁ညနေ	-9.14928
ပြောပြ	-9.14943
သူတို့	-9.14943
ဖွဲ့	-9.15073
ွေ	-9.15127
စကားကို	-9.15322
အသက်	-9.15419
ပါဘူး၊	-9.15525
▁ကူညီ	-9.15635
ဘော	-9.1571
▁မဟာ	-9.15751
▁ပြည့်	-9.1587
များဟာ	-9.15893
▁ကင်း	-9.15977
ရူး	-9.16035
▁ကုလား	-9.16111
နိုင်အောင်	-9.16179
သလဲ။	-9.16211
မကြီး	-9.16237
နှစ်ဦး	-9.16256
အကြံ	-9.16301
▁ဆွမ်း	-9.16407
ဆာ	-9.16526
အေ	-9.16535
▁ဖမ်း	-9.16603
▁လောက	-9.16651
▁တိုး	-9.16664
▁သိရ	-9.16679
▁ကိုယ်တိုင်	-9.16801
မှီ	-9.16883
လွှတ်	-9.16941
လေတော့သည်။	-9.16974
▁သည်ဟာ	-9.17035
လေးက	-9.17036
ကျက်	-9.1705
ယုံကြည်	-9.17114
▁ရုံး	-9.17218
လာသော	-9.17316
▁တစ်ဦး	-9.17463
သည့်အတိုင်း	-9.17493
▁နောက်ထပ်	-9.17526
▁မတွေ့	-9.17538
ခပ်	-9.17806
ပါလား	-9.17809
▁ပြောင်း	-9.17815
ဘာသာ	-9.17852
▁အစ	-9.17859
ရသော	-9.1788
▁တစ်နှစ်	-9.17887
ကိုတော့	-9.17972
ဖစ်၏။	-9.18001
လည်းကောင်း၊	-9.18032
နာမည်	-9.18039
▁လှိုင်း	-9.18046
ရပါသည်။	-9.18051
ခဲ့ပြီး	-9.18097
ဝဲ	-9.18098
▁အရက်	-9.18205
ထိန်း	-9.18227
ပြဲ	-9.18314
သည်လည်း	-9.18563
ဖုံး	-9.18563
▁ခရီး	-9.18588
တုန်	-9.18643
▁အဂင်္လိပ်	-9.18643
▁မယ်ထွေး	-9.18706
ရှင့်	-9.18824
ိုး	-9.18851
ချီ	-9.18894
▁မြင်ရ	-9.18974
▁ပိုပြီး	-9.18997
ဇာတ်	-9.19025
▁သူတစ်ပါး	-9.19026
▁သတင်းစာ	-9.19083
ဆုတ်	-9.19129
▁မျိုး	-9.19239
▁ဗိုလ်	-9.19259
နေပြီ။	-9.19352
▁ဝမ်းသာ	-9.19516
ပြောဆို	-9.19547
တော့မယ်	-9.19557
▁ရန်သူ	-9.19689
▁မိသားစု	-9.19701
▁အမြဲ	-9.19752
ခဲ့ဖူး	-9.19872
နဲ့။	-9.19939
▁စိတ်ကူး	-9.19946
▁တဖြည်းဖြည်း	-9.20069
တိတ်	-9.2021
ွက်	-9.20286
နေကျ	-9.20403
▁လက္ခဏာ	-9.20478
▁စတင်	-9.20522
တက္ကသိုလ်	-9.20556
▁ပုလိပ်	-9.20664
ကြော်	-9.20855
စူး	-9.20942
▁အဖြေ	-9.21201
လိမ့်မယ်။	-9.21274
လိုက်လေသည်။	-9.21306
ပွါး	-9.21345
▁မော	-9.21371
▁သဘာဝ	-9.21387
တွေကလည်း	-9.21441
▁အောက်မေ့	-9.21633
▁မပြော	-9.21647
▁မနက်	-9.21651
တော့ဘူး	-9.21657
ရမယ့်	-9.21781
ခဏ	-9.21817
▁ရှိပါတယ်။	-9.21885
လျက်၊	-9.21921
▁စုံထောက်	-9.21931
▁အပူ	-9.21988
▁တစ်ခုခု	-9.21995
ပြီ၊	-9.22059
▁ဖြစ်ပါသည်။	-9.22081
ဖျက်	-9.22147
▁မိဘ	-9.22183
▁မလုပ်	-9.22208
▁ဝင်ရောက်	-9.22297
အားဖြင့်	-9.22312
▁သိမ်း	-9.22354
▁သတိ	-9.22364
▁တန်ဖိုး	-9.22422
မပျက်	-9.2252
သွားတာ	-9.22556
▁မဖြစ်	-9.22652
တဲ့သူ	-9.22928
ကုန်း	-9.23157
▁ပိတ်	-9.23183
▁ဆေးရုံ	-9.23183
ရော၊	-9.2347
▁အို	-9.23505
တာဘဲ။	-9.23631
▁မဟုတ်ဘူး။	-9.237
ယူပြီး	-9.23774
▁ဝေ	-9.23786
ဖွာ	-9.23825
ဖမ်း	-9.23896
▁အန	-9.23934
ငြိမ်း	-9.24123
မည်း	-9.24162
▁ဦးလပ်	-9.24209
ဆင့်	-9.24286
ုန်း	-9.24286
▁လိုအပ်	-9.24321
▁ဒီမှာ	-9.24344
▁ဒေါ်	-9.24365
▁စိတ်ဝင်စား	-9.24467
ချင်လို့	-9.24605
▁သူ့အ	-9.24623
တစ်မျိုး	-9.24627
▁သစ်	-9.24819
▁ပါဝင်	-9.2484
တေး	-9.24871
▁လှည့်	-9.24918
▁အတိုင်း	-9.24922
▁တစ်စုံတစ်ရာ	-9.25211
ုန်	-9.25285
▁ဒါကို	-9.25439
ဆံ	-9.25461
▁သြ	-9.25529
မြှောက်	-9.25577
စံ	-9.25952
▁သွားရောက်	-9.26023
ယ့်	-9.26024
တတ်သည်။	-9.26063
ထဲကို	-9.26137
သေး။	-9.26173
▁တပည့်တော်	-9.26229
▁မဟုတ်ပါဘူး။	-9.26239
▁အရာရှိ	-9.26263
မဝတ်ရည်၏	-9.26301
မခံ	-9.26306
လို့။	-9.26317
ဖြစ်ကြောင်း	-9.26417
ဆွေ	-9.26434
တာ။	-9.26491
▁ဆရာမ	-9.26551
▁အကြံ	-9.26623
▁ဆယ်	-9.26643
လိုလို	-9.2677
ကလေးက	-9.26915
▁ပြုလုပ်	-9.26927
သိပ်	-9.27005
▁ခြောက်	-9.27067
ကြော	-9.27072
▁မောင်စံရှားသည်	-9.27092
▁ဆောင်	-9.27104
▁အရောင်	-9.27115
▁စီစဉ်	-9.27133
▁တစ်လ	-9.27162
ကျင့်	-9.27242
ဘုန်းကြီး	-9.27286
▁မည်သည့်	-9.27299
▁ငါ့ကို	-9.2736
▁ရန်	-9.27362
ြာ	-9.2744
နည်းနည်း	-9.27446
▁အရာ	-9.27466
တို့ရဲ့	-9.27509
လို့လဲ	-9.27551
▁ငယ်	-9.27568
▁အချို့	-9.27591
မရှိ။	-9.2761
▁ဖခင်	-9.27704
▁ချောင်း	-9.27769
ဖယ်	-9.27772
▁ပစ်	-9.27888
ရင့်	-9.28006
သြော်	-9.28081
▁မိမိတို့	-9.28111
ုရ	-9.2828
▁နွား	-9.28284
ခူး	-9.28511
အကျင်္ီ	-9.2857
ဟို	-9.28643
▁ဆောင်ရွက်	-9.28645
▁ပါလာ	-9.28763
ကလေးများ	-9.28778
မသွား	-9.28873
▁မင်းသမီး	-9.28901
▁မနွေက	-9.2905
▁ထင်ရှား	-9.29092
တဲ့အတိုင်း	-9.29253
ချလိုက်	-9.29323
▁ငပလီ	-9.29371
နစ်	-9.29426
▁အိပ်ရာ	-9.29552
▁ကုမ္ပဏီ	-9.29588
နှမ	-9.2972
ချပ်	-9.29806
▁ထွက်သွား	-9.29811
လျှော့	-9.29859
ံ့	-9.29897
စုတ်	-9.30052
ပုံကို	-9.30109
▁နံနက်	-9.30167
နေရတာ	-9.30185
ဖစ်သည်။	-9.30273
ထူ	-9.30293
▁အလှူ	-9.30335
▁မိခင်	-9.30419
▁ရေးသား	-9.30458
ကောင်းတဲ့	-9.30571
▁တောင်းပန်	-9.30578
▁တစ်ဘက်	-9.3058
▁လက်ဖက်ရည်	-9.3077
ပး	-9.30848
▁လက်ခံ	-9.31001
▁ဝမ်း	-9.31089
တယ်ဆိုတဲ့	-9.31184
▁အတူ	-9.31208
ကြီးနဲ့	-9.31215
ဦ	-9.31275
နှိပ်	-9.31357
▁ထွန်း	-9.31364
ပြန်တယ်။	-9.31372
တွယ်	-9.31386
▁အချစ်	-9.3142
▁တစ်မျိုး	-9.31431
ရှုပ်	-9.31507
သားများ	-9.31537
ါ	-9.3155
သတင်း	-9.3159
ငေ	-9.31622
လို့ရှိရင်	-9.31626
မိုက်	-9.31652
ျ	-9.31684
▁သနား	-9.31736
ရတယ်	-9.31784
နံ	-9.31914
▁ပရိသတ်	-9.31955
လိမ့်မည်။	-9.32074
▁အမျိုးမျိုး	-9.32098
▁ပါး	-9.32198
▁ဖြစ်သွား	-9.32222
▁ဆုံးဖြတ်	-9.32588
▁ကြံ	-9.3261
ခဲ့တယ်။	-9.32613
အစ်မ	-9.32664
ပေါ်မှ	-9.3284
ကြောက်	-9.32843
လာတော့	-9.32868
စလုံး	-9.32894
▁မြစ်	-9.32995
▁ပြန်လည်	-9.33026
ှု	-9.33103
▁အဘိုးကြီး	-9.33153
နိုး	-9.33167
▁တတ်	-9.33203
▁နှုတ်ဆက်	-9.33261
ရဲ့လား	-9.33365
မြော	-9.33397
▁ခါး	-9.33441
မဟုတ်။	-9.33451
▁လေသည်။	-9.33478
ဟူသော	-9.33548
ပျို	-9.33572
တာတွေ	-9.33589
ခံစား	-9.33611
ပေသည်။	-9.33612
ကင်	-9.33636
▁အသုံး	-9.33649
ဖျ	-9.33794
▁အားကိုး	-9.33818
ေ့	-9.33861
▁အများ	-9.34085
့့	-9.34155
▁အလှ	-9.34289
ချောင်	-9.34345
▁ကိုင်	-9.3437
▁င်္ံ	-9.34438
▁ရှိသည်။	-9.34464
စို	-9.34474
ဂျ	-9.34518
တောင်မှ	-9.34548
▁ခင်	-9.34708
▁ရရှိ	-9.34719
▁အဆင့်	-9.34755
▁ခွေး	-9.34807
▁သေချာ	-9.34864
ရာတွင်	-9.34885
ခဲ့ပါ	-9.34926
ဖြစ်ပါတယ်။	-9.34947
ရှောင်	-9.35078
▁ခွဲ	-9.35087
ချမ်း	-9.35112
အဖေ	-9.35139
ရမယ်၊	-9.35142
▁ကောင်းစွာ	-9.3519
ွား	-9.35255
လိုချင်	-9.35374
ွှ	-9.35516
ကြည့်လိုက်	-9.35615
့်	-9.35616
▁အိမ်မှာ	-9.3562
နေရာမှာ	-9.35655
▁ဦ	-9.35752
ထမ်း	-9.35795
နိုင်ဘူး	-9.3581
▁သူတို့က	-9.3581
▁ကျေနပ်	-9.35811
ချင်တာ	-9.35836
လစ်	-9.35864
▁ထင်း	-9.35891
▁အခြေခံ	-9.35891
▁မောင်း	-9.35907
▁ပျက်	-9.35977
လကင်္ာ	-9.35998
▁အောင်မြင်	-9.36002
နှယ်	-9.36057
▁ကြည့်ရှု	-9.36139
▁ကွယ်	-9.36158
ဟယ်	-9.362
▁ဂစ်တာ	-9.36246
နေပြီ	-9.36286
▁ဓာတ်ပုံ	-9.3631
အိမ်ကို	-9.36327
ပုဂ္ဂိုလ်	-9.36333
တည့်	-9.36407
ဘူးလို့	-9.36411
ရသည့်	-9.36592
ကိုပဲ	-9.36819
ခုန်	-9.36868
ပက်	-9.36928
▁အကုန်	-9.37126
တစ်ချက်	-9.37145
▁တကယ်တော့	-9.37175
▁ခင်ဗျားတို့	-9.37266
▁လွတ်	-9.37271
ညှပ်	-9.37318
▁တစ်ဖက်	-9.37489
လက်မှတ်	-9.375
နေကြတယ်။	-9.3755
ိလေ	-9.37554
ောက်	-9.37568
စောင့်ရှောက်	-9.37585
▁တကယ့်	-9.37587
▁တပည့်	-9.37593
ဆူ	-9.37649
သူတော်	-9.37788
▁အပေါ်	-9.37819
▁အသစ်	-9.3786
▁ဓား	-9.37897
ခွေ	-9.38098
▁ယ	-9.38142
▁ခလောက်နို့သား	-9.38201
ဇနီး	-9.38212
ဝတ္ထု	-9.38233
ဝင်လာ	-9.38377
ပေးပြီး	-9.38422
▁အမိန့်	-9.38475
ပေးထား	-9.38513
နော်။	-9.38521
အလို	-9.38558
ကိုး	-9.38561
လဲ။	-9.38561
တယ်ဆိုရင်	-9.38579
ပြုတ်	-9.38589
ထွက်သွား	-9.38618
သူငယ်ချင်း	-9.38626
ဖာ	-9.38659
▁တိုင်ပင်	-9.38751
အန	-9.38808
မျိုးကို	-9.38826
▁ရှာဖွေ	-9.38873
င်းနောက်	-9.38913
▁အေးငြိမ်းကို	-9.38919
သို့ရောက်	-9.39102
ကြသော	-9.39123
နံ့	-9.3919
မော်	-9.39352
ည်း	-9.3941
ရာမှာ	-9.39447
တမ်း	-9.39486
ကြတော့	-9.39531
▁အဖော်	-9.39616
▁ခိုး	-9.39675
အမြင်	-9.39693
ယောကျ်ား	-9.39756
▁ဆင်းရဲ	-9.39761
ကနေ	-9.39771
▁ပြည်သူလူထု	-9.39792
အပေါ်မှာ	-9.39816
သီချင်း	-9.39897
သွား၏။	-9.40016
ကြီးသည်	-9.40062
▁သဲသဲ	-9.40084
လှဲ	-9.40087
▁ပြန်ပြော	-9.40113
▁စာမေးပွဲ	-9.40137
▁မှား	-9.40237
မှာပင်	-9.40255
တစ်စု	-9.40294
▁အာဇာနည်	-9.40321
▁ကျော်သူ	-9.40417
ပါတဲ့	-9.40424
▁စာသင်	-9.40448
▁စည်း	-9.4047
ပန်သည်။	-9.40545
နေထိုင်	-9.40546
မိတ်ဆွေ	-9.40575
▁နှလုံး	-9.40645
မဖြစ်	-9.40702
▁စာရွက်	-9.40726
ပူဇော်	-9.40838
တွေး	-9.40875
ထွေ	-9.40912
မရှိဘဲ	-9.40977
နှင်	-9.41009
ပါရဲ့	-9.41024
▁အေးငြိမ်းသည်	-9.41028
ခို	-9.41047
▁ရှိတယ်။	-9.41124
▁သူတို့ကို	-9.41141
▁မီးဖို	-9.41302
ကမ်း	-9.41338
ဆပ်	-9.41431
▁သရုပ်ဆောင်	-9.41534
▁မောင်ဘိုးဆန်း	-9.41581
ရှိ၏။	-9.41763
▁စားပွဲ	-9.41809
▁ဇနီး	-9.41912
တော့ဘူး။	-9.41922
ယား	-9.41979
ပြန်လာ	-9.42016
သေးတယ်	-9.42085
▁ခုန်	-9.42105
သပ်	-9.42197
တုတ်	-9.42256
▁ရွေး	-9.42266
အုံး	-9.42308
မဟုတ်ဘူး၊	-9.4233
ဆီမှာ	-9.42354
ပေါင်	-9.42421
▁လယ်	-9.42423
ျှ	-9.42423
▁သဘေင်္ာ	-9.42519
▁သဲ	-9.42621
လှူ	-9.42656
ဆိုသော	-9.42657
လိုက်ရင်	-9.42675
တယ်ဗျ။	-9.42704
ပုလင်း	-9.42735
▁အဝတ်	-9.42778
▁အမေက	-9.42865
ပြစ်	-9.42881
▁အတူတူ	-9.42904
▁လွတ်လပ်	-9.42918
နေခဲ့	-9.42918
▁မျက်ရည်	-9.4294
▁မူလ	-9.42943
▁ခံ	-9.42992
ဆိုသူ	-9.42995
▁ရောဂါ	-9.43007
▁သားသမီး	-9.43026
▁အသင့်	-9.43028
▁ကပ်	-9.4303
▁ပူ	-9.43033
အကျိုး	-9.43062
▁မတူ	-9.4307
မျော	-9.43097
ပါလိမ့်မယ်။	-9.43113
ဟူ	-9.43438
စခန်း	-9.43609
ထားသည့်	-9.43642
အမျိုးမျိုး	-9.43697
▁နောက်တော့	-9.43705
ဆိတ်	-9.43752
မပေး	-9.43783
ကျဉ်း	-9.43816
▁လိုချင်	-9.43827
ျာ	-9.43916
▁မာ	-9.43923
▁ကိုး	-9.43984
ရင်လဲ	-9.44064
▁ပြူတင်းပေါက်	-9.44083
▁မကြာမီ	-9.44198
စေမင်း။	-9.44205
▁ဗိုလ်ချုပ်	-9.44224
ရမည့်	-9.44236
ူး	-9.44298
အောက်မှာ	-9.44301
▁အချက်	-9.44303
▁မေ့	-9.44333
▁စာပေ	-9.44339
▁လမ်းလျှောက်	-9.44347
ရှိရာသို့	-9.4437
ဖြစ်စေ	-9.44394
ဘိ	-9.44453
တွေ့ရ	-9.4455
ကြလော့။	-9.44561
ြူ	-9.44679
▁တိုင်း	-9.44701
▁နာ	-9.4474
▁ထမင်းစား	-9.44779
ကိုလဲ	-9.44812
ရှိရာ	-9.44812
တစ်ချောင်း	-9.44827
ဖြစ်အောင်	-9.44948
လုပ်ငန်း	-9.44969
အုန်း	-9.45037
ကြုံ	-9.45095
ကြောင်း၊	-9.45127
▁ညီမလေး	-9.45135
ပယ်	-9.45172
▁အိမ်ပေါ်	-9.45237
ြ့	-9.45248
▁ကြောင့်	-9.45257
▁ရှောင်	-9.45282
▁မြောက်	-9.45359
စုံထောက်	-9.4537
အော်	-9.45383
ဖြစ်သွား	-9.45385
ရောဂါ	-9.45422
မတတ်	-9.4543
အံ့	-9.45481
ိတ	-9.45555
ဖို	-9.4566
▁မိမိ၏	-9.45697
▁အထက်	-9.45809
ထားတယ်။	-9.45863
တစ်ယောက်ကို	-9.45883
မရှိဘူး။	-9.45925
▁ဂျပန်	-9.45927
ပိုး	-9.46239
မလေး	-9.46314
ရွယ်	-9.46322
နေစဉ်	-9.46334
လုပ်ပြီး	-9.46359
ပြုံး	-9.46409
အလုပ်ကို	-9.46652
▁တက္ကသိုလ်	-9.46666
တစ်ဆင့်	-9.46803
နေရင်း	-9.46858
ကျွန်မ	-9.46963
▁ငေး	-9.46994
ဆီကို	-9.47042
ကောင်းကောင်း	-9.47075
က္ခ	-9.47087
ရယ်လို့	-9.47126
ငို	-9.4727
▁ပုဂ္ဂိုလ်	-9.47275
တချို့	-9.47289
နိုင်ပါ	-9.47416
▁ဘယ်တော့မှ	-9.47429
▁လုံး	-9.47481
နားလည်	-9.47495
▁အကောင်းဆုံး	-9.47557
ကနေပြီး	-9.4759
ဗျ၊	-9.47591
လေလျှင်	-9.47614
အမည်	-9.4763
မအေးငြိမ်း	-9.47661
ဖြုတ်	-9.47678
▁အင်း	-9.47688
ဖြောင့်	-9.477
လွင်	-9.47714
မွှေး	-9.47727
▁အလကား	-9.47731
▁ပထမဆုံး	-9.47828
▁အအေး	-9.47869
▁အရသာ	-9.47906
မလဲ။	-9.47929
▁ဂီတ	-9.47987
ထားလိုက်	-9.47999
▁တွေ့မြင်	-9.48013
▁ထားက	-9.481
ဆိပ်	-9.48283
▁ဆု	-9.48304
▁အသာ	-9.48357
အပြည့်	-9.48361
သေးဘူး	-9.48383
▁ဒီလောက်	-9.48419
မမ	-9.48441
▁အရွယ်	-9.48588
▁နှုတ်	-9.48599
▁လက်နက်	-9.48655
▁စိန်	-9.48696
သား၊	-9.48828
ရှိသည့်	-9.49042
▁အနောက်	-9.49056
▁မလို	-9.49066
ဘုရင်	-9.49107
တယ်ြ	-9.49164
ပြည့်စုံ	-9.49174
ပေးပါ	-9.49283
ရင်တော့	-9.49308
အသင်း	-9.49336
သွယ်	-9.49404
▁ရှ	-9.49438
သာလျှင်	-9.49446
ဖြည့်	-9.49463
▁ညိရုစ	-9.49463
▁နောက်တစ်နေ့	-9.49473
စရိတ်	-9.49483
ပြါ	-9.49573
▁ညည်း	-9.49729
များမှာ	-9.49764
▁ပြည့်စုံ	-9.49776
နေတာကို	-9.498
▁ရန်ကုန်။	-9.49808
ို့	-9.49887
▁အမြန်	-9.49938
▁ပေါ်လာ	-9.49956
▁သည်အမှု	-9.49979
ချာ	-9.5008
များ၏	-9.50108
တဲ့လူတွေ	-9.50119
ပိ	-9.50226
လိုက်တော့	-9.5024
တာမို့	-9.50386
▁စာရင်း	-9.5045
မှာပေါ့	-9.50466
လောက	-9.50492
▁မူး	-9.50506
▁ဝတ္ထု	-9.5053
▁ဇ	-9.50548
ဖစ်နေ	-9.50634
လာ၏။	-9.50634
▁သူ့အမေ	-9.5065
▁လျှောက်ထား	-9.50791
ယို	-9.50829
ထု	-9.50855
▁ဝါး	-9.50897
ငွေ့	-9.50936
ဉာဏ်	-9.50974
▁ရောမ	-9.51039
ုစ	-9.51074
▁နယ်	-9.51114
ရရင်	-9.5113
▁စီး	-9.51224
လျား	-9.51243
▁အေးအေးဆေးဆေး	-9.51281
များဖြင့်	-9.51312
လော့။	-9.51314
လိမ္မာ	-9.51325
တာကိုး	-9.51339
▁အင်းဝ	-9.51349
▁ခက်	-9.51377
ကြည့်ရှု	-9.51399
▁ဆုံးမ	-9.51539
▁မိန်းမကြီး	-9.51631
နိမ့်	-9.51753
စွန်း	-9.51757
▁လုပ်ငန်း	-9.51796
ကျေ	-9.51819
▁သည်လူ	-9.51825
ချွတ်	-9.51828
ပုတ်	-9.52075
ပေါ်လာ	-9.52192
ကိန်း	-9.52194
လှန်	-9.52194
▁သူတို့၏	-9.52345
ပါလား။	-9.52354
▁မိ	-9.52378
▁ရောက်နေ	-9.52434
▁ကောင်မလေး	-9.52438
ဒကာ	-9.52443
ည်	-9.52471
မျက်	-9.525
▁အလို	-9.52569
ငုံ	-9.52569
ယင်	-9.52586
ချော	-9.52658
တစ်စီး	-9.52659
တည်း။	-9.52703
▁ကြည့်နေ	-9.52755
အစား	-9.52773
▁စိုး	-9.52886
▁နိုင်ငံခြား	-9.53174
▁ဆုတောင်း	-9.53176
▁ဖင်္ံ	-9.53193
ညွှန်း	-9.53204
မကျ	-9.53285
ပါရော	-9.53293
▁နောက်မှ	-9.5335
ထံမှ	-9.53366
ချင်ရင်	-9.5337
ပွ	-9.53396
ဝန်း	-9.53397
တစ်ပုဒ်	-9.53404
▁ကျွန်တော့်မှာ	-9.53425
တွင်းသို့	-9.5349
သုတ်	-9.53593
ဖို့အတွက်	-9.53593
▁စိုးရိမ်	-9.53594
သံကို	-9.53671
▁ထွက်ပြေး	-9.53698
▁လူ့	-9.53728
ပုံပြင်များ	-9.53735
▁အစီအစဉ်	-9.53766
လွန်းလို့	-9.53787
▁သည့်ပြင်	-9.5381
▁ကိုအောင်	-9.5383
မှတ်မိ	-9.5393
သကဲ့သို့	-9.53947
တာကိုးဗျ။	-9.53964
▁ဒီလူ	-9.53992
▁ဖက်	-9.54027
လိုက်တဲ့	-9.5412
ချင်တဲ့	-9.5414
▁ဘာလုပ်	-9.54164
▁ှု	-9.54233
ွင်း	-9.5436
▁ကမ်း	-9.54384
နေကြတာ	-9.54447
ရှား	-9.54449
အလွန်	-9.5456
▁လည်	-9.54561
တော့ပေ။	-9.54588
▁ပို့	-9.54624
▁ကျား	-9.54659
ယောက်	-9.54726
ဘွဲ့	-9.54768
ည့်	-9.54799
▁တက်လာ	-9.54811
ပင်။	-9.54839
▁ရှက်	-9.54859
ညှိ	-9.54875
▁လိပ်	-9.54896
ရွေး	-9.54937
▁ဆက်လက်	-9.54962
ဖြစ်ဖြစ်	-9.5498
▁ကိုဘိုးသက်	-9.5502
▁သုမန	-9.55023
▁မူကွဲ	-9.55027
▁ထူးခြား	-9.55038
▁မေတ္တာ	-9.55041
မှစ၍	-9.55059
ပီပီ	-9.55245
ပဒေ	-9.55248
မျက်စိ	-9.55288
▁သတ္တိ	-9.55298
▁ယူဆ	-9.553
တောင့်	-9.55315
▁ခြံ	-9.55336
တစ်ယောက်က	-9.55352
▁ဖြစ်လေသည်။	-9.55366
တာဘဲ	-9.55382
▁ကြံစည်	-9.5539
▁ဆုံး	-9.55397
▁စော	-9.5541
▁ညီ	-9.55412
ထံသို့	-9.55436
▁ယခုတော့	-9.55461
ပါသတဲ့။	-9.55527
ပြောင်	-9.55562
▁ရှင်း	-9.55597
မု	-9.55617
တစ်ဖက်	-9.55656
ဆန့်	-9.55672
မရှိဘူး	-9.55679
▁တန်း	-9.55688
▁တချို့က	-9.55717
ပါလို့	-9.55741
စိ	-9.55778
တဲ့အကြောင်း	-9.55792
ပါဘဲ	-9.55856
▁ဆရာ့	-9.56036
နှစ်ခု	-9.5605
ကမူ	-9.56072
▁တုတ်	-9.56141
ချည်	-9.56229
ရောက်သောအခါ	-9.5623
▁ပြာ	-9.56262
ရယ်။	-9.56284
ပင်း	-9.56311
နှစ်လုံး	-9.56329
ကုမ္ပဏီ	-9.56335
နေတတ်	-9.56389
တတ်နိုင်	-9.56436
▁ကျော်ကျော်	-9.56503
▁မှောင်	-9.56645
▁လူမျိုး	-9.56696
▁ရှစ်	-9.56801
▁ချစ်ခင်	-9.56854
နှုန်း	-9.56892
အဖြစ်အပျက်	-9.56944
▁ဖန်တီး	-9.56961
▁မြန်မာပြည်	-9.5701
ရှက်	-9.57018
▁ကြိုက်	-9.57139
အခြေအနေ	-9.5716
ိမ့်	-9.57186
▁ဂုဏ်	-9.57196
မမြင်	-9.57277
▁ဦးခေါင်း	-9.57312
ရှာဖွေ	-9.57333
▁အခုတော့	-9.57433
ဒုက္ခ	-9.57445
ရပ်ကွက်	-9.57459
စားကြ	-9.57544
▁ပြောပြီး	-9.57586
ရှိတာ	-9.57602
လာခဲ့သည်။	-9.57725
ပြန်တော့	-9.57752
လိုပဲ	-9.57768
▁နွေ	-9.57826
တို့ဖြင့်	-9.57933
▁ကျေးဇူး	-9.57983
လျက်။	-9.58046
သက်သက်	-9.58194
▁ဆောက်	-9.58224
▁ထိ	-9.58236
လှုပ်	-9.58397
▁ဘာဖြစ်လို့	-9.58453
▁လွှတ်	-9.58455
မဟုတ်လား	-9.58494
▁မဟုတ်။	-9.58514
▁ကြမ်း	-9.58558
▁အပါး	-9.58585
▁ကြွ	-9.58652
▁မထင်	-9.58762
နောက်ပိုင်း	-9.58803
နှိပ်စက်	-9.58805
လားြ	-9.58879
နေသူ	-9.58893
▁ခေတ္တ	-9.58893
ယှဉ်	-9.58903
နွယ်	-9.58904
▁ကိုစိုးနိုင်	-9.58904
အောင့်	-9.58906
ကြီးမား	-9.58907
မြန်	-9.58926
▁ကွမ်း	-9.59006
▁အမျိုး	-9.59039
▁ဉာဏ်	-9.59039
▁သူဟာ	-9.59043
▁ကစား	-9.59098
ွဲ	-9.59141
ဘူးတဲ့	-9.59158
ညံ့	-9.59204
ပါသေးတယ်။	-9.5923
သံကြား	-9.59293
ယက်	-9.59311
ဆိုင်း	-9.59324
ခဲ့၏။	-9.59336
ရောက်အောင်	-9.59352
ငြိမ်းချမ်း	-9.59353
▁အိပ်မက်	-9.59437
ကျွတ်	-9.59464
လျ	-9.59469
တာဝန်	-9.59549
မဟုတ်ဘူး။	-9.59764
နိုင်တာ	-9.59806
▁မျှော်	-9.59817
ကြေ	-9.59875
▁မုန့်	-9.59876
▁ထိန်း	-9.5996
နေမိသည်။	-9.59962
မုန်း	-9.60042
ဖြစ်လာ	-9.60057
▁မြနုက	-9.6007
စရာရှိ	-9.60291
▁ဆန်	-9.6033
▁သိပ်မ	-9.60348
တယ်ဆို	-9.60352
▁ဘာများ	-9.60359
ပါ့မယ်	-9.60373
▁ခုနစ်	-9.6048
မဟုတ်ပါဘူး	-9.60517
ဘူ	-9.60621
▁အမိုး	-9.60685
▁အမူအရာ	-9.60731
▁ဒါဖြင့်	-9.6088
ညီညွတ်	-9.60904
▁မည်သို့	-9.60912
▁ပုရစ်	-9.60941
တစ်စင်း	-9.60954
စ္စ	-9.60956
▁အိပ်ပျော်	-9.60965
▁ဗမာ	-9.60968
တတ်တယ်။	-9.6099
ခါနီး	-9.60994
▁ဘွဲ့	-9.61009
▁လုံးဝ	-9.61013
ဟေ	-9.61096
ရလေ၏။	-9.61111
သွားသော	-9.61116
ရခြင်း	-9.61132
ကွ။	-9.61273
မန်း	-9.61287
▁လွတ်လပ်ရေး	-9.61328
▁ယုံ	-9.61481
▁တစ်ယောက်တည်း	-9.61501
▁မသိဘူး	-9.61519
ဇင်း	-9.61544
▁အပ်	-9.61608
လေပြီ။	-9.61614
ကြွေး	-9.61629
လှုပ်ရှား	-9.61654
မေ့	-9.61672
▁ဘယ်သူမှ	-9.61705
တော့မည်	-9.61775
ရာမှ	-9.61786
တကာ	-9.61805
▁အဝေး	-9.61813
လှသည်။	-9.61838
▁အေးငြိမ်း၏	-9.61857
▁သာယာ	-9.61886
အောက်တွင်	-9.61892
ဇော	-9.61952
မင်းကြီး	-9.61989
စဉ်က	-9.62068
မိဘ	-9.62069
ဖြစ်လို့	-9.62119
ဒါဖြင့်	-9.62126
နေမိ	-9.62129
လန်	-9.62143
တာပါပဲ။	-9.62171
ကျောင်းသား	-9.6222
ပြောတာ	-9.62254
တစ်ပတ်	-9.62261
▁အဖွဲ့	-9.62265
တယ်လေ။	-9.62274
အာ	-9.62351
▁တွေ့ရှိ	-9.62417
▁ကုလားထိုင်	-9.62456
▁ချစ်သူ	-9.6249
ရာသီ	-9.62529
▁ဒီအ	-9.62543
▁သူ့ရဲ့	-9.62546
စိတ်ထဲမှာ	-9.62556
ကြီး၏	-9.62724
▁အရှင်	-9.62798
အရိပ်	-9.62804
မိ၏။	-9.62809
▁ရှင်းလင်း	-9.62847
ွမ်း	-9.62909
န္ဒ	-9.62921
▁သမိန်ဘရမ်း	-9.62945
ထို	-9.62945
ဖြန့်	-9.62945
တစ်ခေါက်	-9.62963
ကုန်ကြ	-9.62964
▁ထဟေ	-9.62995
ခြင်းကို	-9.63004
▁ကြွက်	-9.63011
ရောက်လျှင်	-9.63037
ပစ္စည်းများ	-9.6304
ဖျင်	-9.63047
လာရင်	-9.63091
နေမိတယ်။	-9.63097
နိုင်တယ်။	-9.6323
▁စက္ကူ	-9.63241
ဆက်ဆံ	-9.63247
▁ကြည့်လိုက်	-9.63248
သွား၍	-9.63285
▁မျက်နှာကို	-9.63302
▁ဘုရင်ကြီး	-9.63436
▁မျက်လုံးများ	-9.63474
အခန်းထဲ	-9.63588
နိုင်ကြ	-9.63598
နေတော့	-9.63617
ကျေးဇူး	-9.63705
မြည်	-9.63743
ပါဘဲ။	-9.63804
▁သူတို့နှစ်ယောက်	-9.63827
တို့လည်း	-9.63846
လျော့	-9.63925
ကြည့်တော့	-9.63963
လေးပါး	-9.64004
ဟုတ်တယ်	-9.64082
ညစ်	-9.6414
နေဆဲ	-9.64173
ဘီး	-9.64242
▁သို့နှင့်	-9.64321
▁ဟောဒီ	-9.6435
▁သည်လောက်	-9.64427
▁အစာ	-9.64449
▁နားမလည်	-9.64481
ကြပြီး	-9.64498
▁ဘာသာ	-9.64502
သွားပြီ	-9.64552
ဆု	-9.64686
▁စီပွါး	-9.64776
▁အိမ်ရှင်	-9.64891
လောင်	-9.64912
ချွန်	-9.64971
ကျူးလွန်	-9.65042
လွှဲ	-9.65052
နိုင်ဘူး။	-9.65088
▁ကလဲရာ	-9.65126
လှသော	-9.65137
▁ရန်ကုန်မြို့	-9.6516
မဟုတ်ဘူး	-9.65199
▁ပန်းကန်	-9.65205
ကျေး	-9.65219
ဖွ	-9.65225
▁အကျင့်	-9.65236
▁ထောက်	-9.65243
များရဲ့	-9.65262
သုံးယောက်	-9.65271
▁လက်ထပ်	-9.65366
▁နို့	-9.65382
မပြု	-9.65398
ှာ	-9.65405
▁သစ္စာ	-9.65466
▁ကျုပ်ကို	-9.65588
▁သူတို့သည်	-9.656
▁ထိုနေ့က	-9.6564
▁ဂြိုဟ်	-9.65905
နိုင်သည်။	-9.65908
▁အနား	-9.65927
ပြောလိုက်	-9.65948
ကြိတ်	-9.65953
ဘောင်	-9.65993
ဖြစ်၏။	-9.66029
ဗိုလ်	-9.66043
▁ယောကျ်ားလေး	-9.66136
▁လှုပ်ရှား	-9.66286
နေရာက	-9.66457
လူး	-9.66564
တာမျိုး	-9.66656
နည်းနဲ့	-9.66669
▁လူတွေက	-9.66675
▁ဝက်	-9.66818
▁ဘယ်မှာ	-9.66959
ဟဲ	-9.66985
တိမ်	-9.67047
ဖျော်	-9.67156
ရိုင်း	-9.67158
စွပ်	-9.67161
နံရံ	-9.67177
▁ဘာကြောင့်	-9.67224
▁ရိုး	-9.67227
▁လင်း	-9.6725
မှာရှိတဲ့	-9.67258
▁သို့မဟုတ်	-9.67266
ကြဘူး။	-9.67342
လိုက်မိ	-9.67351
▁နှလုံးသား	-9.67445
▁ဖောက်	-9.67516
▁မေးခွန်း	-9.67571
▁ဝင်လာ	-9.67658
မနက်	-9.67731
ငြိ	-9.67778
▁အကျဉ်း	-9.67825
▁အေးငြိမ်းတို့	-9.6789
ပညာရှင်	-9.67999
မှုတ်	-9.68012
ရာ။	-9.68029
▁လေယာဉ်	-9.68046
ဝန်ထမ်း	-9.68049
အရေး	-9.68175
ဖိတ်	-9.68177
▁အိမ်ကို	-9.68237
ခိုက်	-9.68246
အချို့	-9.68285
လွှတ်လိုက်	-9.68322
များစွာ	-9.68344
▁တစ်ယောက်က	-9.68348
အံ	-9.68357
▁ပြော၍	-9.68388
သု	-9.68401
ဆွတ်	-9.68484
▁နှုတ်ခမ်း	-9.68496
ာတ	-9.68642
ထင်ရှား	-9.68666
▁ဟ	-9.68692
▁ဒါဟာ	-9.68763
▁ဘုန်းတော်ကြီးက	-9.68796
ဂူ	-9.68832
အနီး	-9.68842
▁သာသနာ	-9.68869
နန်း	-9.68924
▁အရိပ်	-9.68925
▁ဒါမှမဟုတ်	-9.6896
▁ကျန်ရစ်	-9.6902
▁ဆိုရင်	-9.69087
ဆိုင်ရာ	-9.69089
နဲ့အတူ	-9.691
ဖြစပွါး	-9.69329
▁ကိုဇော်	-9.69332
▁အဓိက	-9.69357
▁ာံင	-9.6937
ဖောင်	-9.69383
စုဆောင်း	-9.6941
လုပ်နေ	-9.69412
လိုက်ရာ	-9.69438
▁တစ်ခါတည်း	-9.69462
▁သင်တန်း	-9.69493
ဒု	-9.69517
▁ပေ	-9.69528
▁သဘောထား	-9.69572
ပွဲမှာ	-9.69573
အုပ်စု	-9.69596
ရာဇ	-9.69624
လူကြီး	-9.69632
ကြည့်စမ်း	-9.69641
▁ယင်း	-9.69673
ယပ်	-9.69693
ဂါ	-9.69695
▁ကြော်ငြာ	-9.69713
▁ညီမ	-9.69777
တစ်ဝက်	-9.69782
ငု	-9.69788
ပေးသည်။	-9.69795
▁မျှော်လင့်	-9.69843
▁လုပ်နေ	-9.69862
ဘယ့်နှယ်လဲ	-9.69888
ငင်	-9.69902
▁လိုက်သွား	-9.69935
ဘဝကို	-9.69943
▁သူ့မျက်နှာ	-9.69968
များလည်း	-9.70057
▁စုံစမ်း	-9.70061
တာပါ	-9.70066
▁မယား	-9.70075
တစ်ရွက်	-9.70083
▁ကျောက်ဖြူ	-9.70171
▁အထင်	-9.70201
ရလျှင်	-9.70208
▁သိရှိ	-9.70342
နင်	-9.70511
မျှော်	-9.70523
▁ကာလ	-9.70563
▁လှေကလေး	-9.70579
▁ကိုရင်	-9.70601
▁စောစောက	-9.70647
လက်ထဲ	-9.70663
ရမလဲ	-9.70713
ထုံး	-9.70724
ကမ္ဘာ	-9.70737
တစ်ခုခု	-9.70773
▁သမ	-9.70793
▁ထိန်းသိမ်း	-9.70803
တို့နှင့်	-9.70805
ပြီးသား	-9.70809
ဘက်မှာ	-9.70845
ကွန်ပျူတာ	-9.70848
▁သကြင်္န်	-9.70892
တစ်စောင်	-9.70896
့့်	-9.70915
သူငယ်	-9.70918
▁သူ့လက်	-9.70971
▁ကရင်	-9.70982
▁ရှိသေး	-9.71018
သေးဘူး။	-9.71018
▁ဘကွန်း	-9.71037
အရာရှိ	-9.71041
ာလ	-9.71117
▁ဗေဒင်	-9.7113
ဟိ	-9.71145
▁ရေထဲ	-9.71148
▁ဖေဖေက	-9.71188
ဝင်ပြီး	-9.71235
ပင့်	-9.71244
▁ပုံစံ	-9.71289
မြတ်နိုး	-9.71294
▁အသုံးချ	-9.71357
▁ပြင်	-9.71373
ကျောက်	-9.71375
နေလေ၏။	-9.71384
ကစပြီး	-9.71435
များကိုလည်း	-9.71552
▁ဒြီ	-9.71552
▁င်္ုံ	-9.71553
ဟုတ်ကဲ့	-9.71555
ဖူ	-9.71587
▁တစ်စုံတစ်ခု	-9.7159
▁္တလေးမြို့	-9.71691
ပေးတဲ့	-9.71693
မြောင်း	-9.71715
လိုသော	-9.7174
▁အဲသည့်	-9.71771
မတ်အေး	-9.71797
ဆိုသည့်	-9.71854
ခါး	-9.71857
▁စိတ်ပျက်	-9.71867
▁မေမေ့	-9.71891
▁ကြောင်း	-9.71893
အဆုံး	-9.71905
▁ဘယ်သူ့	-9.71926
လုံးကို	-9.71929
ပုတီး	-9.71982
ဖိ	-9.72077
▁ဆွေးနွေး	-9.72128
ကြွား	-9.72167
▁နန်း	-9.72173
▁မရောက်	-9.72274
မှာပဲ။	-9.72376
▁အဆုံး	-9.72419
▁ခေါင်းဆောင်	-9.72427
▁မယူ	-9.72431
လျင်	-9.72484
▁လှူ	-9.72512
မပါ	-9.72521
ဦးမယ်	-9.72579
▁ဇရပ်	-9.72608
▁အုပ်	-9.72636
▁အနှစ်	-9.72652
ပါရစေ	-9.72739
▁ငါက	-9.72835
တော့လဲ	-9.72892
ဖြစ်သောကြောင့်	-9.72909
မတ်ထွေးက	-9.72927
▁တိုင်	-9.73018
ရှိတယ်၊	-9.73057
▁ဖြစ်တယ်။	-9.7317
▁မဂင်္လာ	-9.73171
▁ကျက်	-9.73226
ဂုဏ်	-9.73294
▁ကျွန်တော်၏	-9.73315
ဆန္ဒ	-9.73326
ဖော်ပြ	-9.73361
ဓား	-9.73377
ရွာသား	-9.73447
▁ကျွန်တော်လဲ	-9.73477
▁ဗုဒ္ဓ	-9.73519
ပေါ့လေ။	-9.73526
▁ယနေ့	-9.73537
▁ရယ်မော	-9.73551
ငါ့	-9.73559
▁ချုပ်	-9.73579
▁ဘီ	-9.73602
ပေတော့	-9.73642
ရသေး	-9.73653
ထမင်း	-9.73743
▁လက်ဝှေ့	-9.73771
▁တစ်ခါတစ်ရံ	-9.73824
အပပလေ	-9.73828
▁ဦးတော်တော်	-9.73871
ခြုံ	-9.73893
ကွပ်	-9.73899
▁ဆေးလိပ်	-9.73909
▁ဝမ်းနည်း	-9.7395
ကြွယ်	-9.73955
▁တဟေ	-9.73959
သေးဘဲ	-9.7396
သတ်မှတ်	-9.73964
▁စသည်တို့	-9.73975
▁ပြောင်းလဲ	-9.74016
ခြေရာ	-9.74023
င်္	-9.74023
သာမက	-9.7411
▁သင့်	-9.74205
▁ကျမ်း	-9.74237
▁မမြင်	-9.7435
ချော်	-9.74425
သွားတယ်	-9.74431
▁အင်စပိတ်တော်	-9.74493
ခွံ	-9.745
ဆော	-9.74505
သို	-9.74565
▁မသွား	-9.74586
လိုက်ပါတယ်။	-9.74647
ဂေ	-9.74692
▁ကြုံ	-9.74712
▁ဟုတ်လား	-9.74785
ပါတယ်တဲ့။	-9.74911
▁တစ်လုံး	-9.74911
▁အတွေး	-9.7492
▁အင်	-9.7496
ချင်သည်။	-9.74969
စိန်	-9.74978
အရောင်	-9.75036
▁ခြေရာ	-9.75042
ညနေ	-9.75052
နိုင်ဖို့	-9.75055
ဓာတ်ပုံ	-9.75115
ကစား	-9.7514
▁ပြောတာ	-9.75216
အပေါင်း	-9.75226
ယုံ	-9.75285
ပါးပါး	-9.75288
ချထား	-9.75312
လုပ်ကိုင်	-9.75335
▁စောင်	-9.75397
ာနဒ	-9.75399
▁တတိယ	-9.75429
ခွ	-9.75516
အများ	-9.75597
▁ထီး	-9.75609
ပုဒ်	-9.75637
လျှောက်ထား	-9.7567
ကြိမ်	-9.75727
ရှိတယ်	-9.75731
ရပါး	-9.75743
ကြံစည်	-9.75894
▁တန်	-9.75923
နို့	-9.75933
သိပ္ပံ	-9.75942
ဝါဒ	-9.75959
▁လုံချည်	-9.75991
ပျင်း	-9.75996
အနီးသို့	-9.76017
▁မနည်း	-9.76018
ကြီးရဲ့	-9.76021
▁ဘာကို	-9.76023
ဘီ	-9.76048
လုံးလုံး	-9.76087
▁တိတ်ဆိတ်	-9.76114
▁မရှိတော့	-9.76128
▁ဒီမိုကရေစီ	-9.76136
ရေ၊	-9.76141
လျှံ	-9.7615
▁ပိုမို	-9.76151
မတွေ့	-9.76158
မှောက်	-9.76161
▁အဖြစ်	-9.76181
▁သာမန်	-9.76182
အရှိန်	-9.76188
▁ကိုဘ	-9.76212
▁တီး	-9.76216
▁ရိုးရိုး	-9.76222
▁ဆောင်း	-9.76241
အမျိုးအစား	-9.76244
▁နေ့စဉ်	-9.76249
▁သူတို့ရဲ့	-9.76261
များအတွက်	-9.76273
▁ဇာတ်ကား	-9.76295
▁အဘ	-9.76383
▁ကျင်းပ	-9.76413
ချောက်	-9.76423
ပြုလုပ်	-9.76448
မာန်	-9.76466
▁ယခင်က	-9.76472
အချိန်မှာ	-9.76496
ရိုးရာ	-9.76572
နှင့်တကွ	-9.766
စေရန်	-9.76615
ပြီးသော်	-9.76628
▁ကွန်	-9.76636
တာကိုး။	-9.76637
လှိုင်	-9.7665
▁ွှိနဒုဝစ	-9.76685
မတူ	-9.76723
တစ်ချပ်	-9.76755
▁ဆြ	-9.76866
ပုံပြင်	-9.76872
တွေကတော့	-9.77006
စာရင်း	-9.77047
▁မည်သူ	-9.77067
တစ်ခုလုံး	-9.77083
သိမ်	-9.77114
▁တွေ့ရသည်။	-9.77121
▁သက်သာ	-9.77136
ရွှင်	-9.77278
အမျိုး	-9.77287
ဆောင်ရွက်	-9.77315
▁စားသောက်	-9.77333
မှန်းမသိ	-9.77383
▁အလွန်တရာ	-9.77391
▁စိတ်ချ	-9.77432
လာပြီ	-9.77552
▁လုပ်ကိုင်	-9.77571
▁လွန်	-9.77576
စမ်းပါဦး	-9.77616
▁စိတ်မ	-9.7762
အသစ်	-9.7774
▁ရွေးချယ်	-9.77793
▁လှည်း	-9.77851
ချစ်စရာ	-9.77871
▁သမိုင်း	-9.77927
ချဉ်	-9.77934
မြှ	-9.77986
အစ်ကို	-9.77989
ဆိုလို့	-9.78075
လျက်ရှိသော	-9.78109
တစ်ယောက်တည်း	-9.78185
▁ကောင်းကင်	-9.7819
ကျန်ရစ်	-9.78303
▁နှင်းဆီ	-9.78308
ငှက်	-9.78319
လို့လား	-9.78334
တပည့်	-9.78507
ပျော့	-9.78531
▁ကျွနု်ပ်	-9.78531
အဂင်္ါ	-9.78531
▁ကိုအောင်ကိုး	-9.78546
ကြည်ညို	-9.78574
ရွံ့	-9.78621
▁မစား	-9.78623
အမှုထမ်း	-9.78704
▁ရိုးသား	-9.78769
ကနဲ	-9.7879
နားမှာ	-9.78852
▁ဖေဖေ့	-9.7886
ဆွေမျိုး	-9.78865
င်း၏	-9.78901
မယား	-9.78903
ကဗျာ	-9.78949
တြာ	-9.78955
▁မြတ်စွာဘုရား	-9.78976
တစ်စုံ	-9.78983
တစ်ရာ	-9.79001
ထင်တယ်	-9.79037
ပြီလား	-9.79038
ဂျီ	-9.79041
▁ကောင်လေး	-9.79076
ပါဘုရား	-9.7908
လေ့လာ	-9.7909
ဆုပ်	-9.79125
ရှာတယ်။	-9.79158
တိုးတက်	-9.79174
ချုံ	-9.79252
ပြု၍	-9.79278
▁မဟုတ်ပါဘူး	-9.79294
မြက်	-9.79392
▁ဖြစ်ပါ	-9.7941
ယူကာ	-9.79453
▁မေးမြန်း	-9.79494
ကျန်	-9.79501
သည်ဖြစ်၍	-9.79573
လိုက်ခဲ့	-9.79604
လွယ်ကူ	-9.79659
▁ပညာရှိ	-9.7968
▁သယ်	-9.7971
ေးသည်	-9.79795
▁ကျွန်တော်နှင့်	-9.79837
▁သေတ္တာ	-9.79868
▁ဘာဖြစ်	-9.79899
▁ပြင်ဆင်	-9.79968
▁သားတော်	-9.80012
▁ဝေး	-9.80258
သူတစ်ယောက်	-9.80307
ကြတယ်	-9.80408
▁အဝတ်အစား	-9.80418
ပွဲစား	-9.8047
အဖြစ်နဲ့	-9.80531
▁စည်းကမ်း	-9.80619
ချပြီး	-9.80845
▁ဆန်း	-9.80861
ှစ်	-9.80905
▁ဇာတ်လမ်း	-9.80927
နှစ်ပါး	-9.80933
▁အရှေ့ပိုင်းကရင်	-9.8097
▁မောင်သန်းတင်	-9.8097
▁မနာဂျီ	-9.8097
▁လောရင့်	-9.80972
▁တရုတ်	-9.80976
ဆောက်	-9.80981
၊ကိက်	-9.80986
ချေး	-9.80991
▁ခဏခဏ	-9.81
ဂင်္	-9.81007
▁တိုးတိုး	-9.8102
ရဒ	-9.81051
▁သံကြိုး	-9.81066
▁မီးရောင်	-9.81118
▁အဲသည်	-9.81163
မဝင်	-9.81175
တုပ်	-9.8127
တော်ကြီး	-9.81277
မှန်းသိ	-9.81332
နိုင်သေး	-9.81362
▁အရှေ့	-9.81401
▁ဒါထက်	-9.81432
လိုက်ရသည်။	-9.81455
▁ငြင်း	-9.81512
▁လွမ်း	-9.81566
▁မေးလိုက်	-9.81598
▁မင်းသား	-9.8163
တိမ်း	-9.81643
▁လူသား	-9.81653
မှာပါ။	-9.81687
စွ	-9.81744
ကြောင်းကို	-9.81782
▁လူဆိုး	-9.81797
အလယ်	-9.81803
နေတာပဲ	-9.81878
▁မယ်	-9.8189
▁ခုတော့	-9.8192
▁ခန့်	-9.81922
တဲ့အချိန်	-9.81937
ဖြစ်သဖြင့်	-9.8203
▁မကြည့်	-9.82158
▁ဖွဲ့စည်း	-9.82171
င်းတို့	-9.82185
▁အလယ်	-9.82288
တွေအတွက်	-9.8229
ဝှက်	-9.82293
▁သေဆုံး	-9.82306
▁၂၂	-9.82388
▁လူတိုင်း	-9.82621
တယ်ခင်ဗျ။	-9.82651
ငယ်ငယ်	-9.82688
▁ပရိ	-9.8269
▁ပြောလိုက်သည်။	-9.82694
တစ်လျှောက်	-9.82745
▁ွှ	-9.82775
▁ကျန်းမာ	-9.82794
အောင်လုပ်	-9.82817
▁ဓမ္မ	-9.82968
▁မိတ်	-9.82986
▁ဒိ	-9.83004
▁ဆရာတော်ကြီး	-9.83027
▁ဒီလိုပဲ	-9.83086
သည်ကား	-9.8313
ဆွ	-9.8316
အသွင်	-9.83268
ထန်	-9.83351
ပါလိမ့်	-9.83382
ဝမ်း	-9.83395
သေး၏။	-9.83418
မလို့	-9.83437
▁အိမ်က	-9.83468
▁အန်တီကြီး	-9.83572
သီလ	-9.83578
▁စွဲ	-9.8358
အံ့သြ	-9.83643
ဓမ္မ	-9.83647
သည့်တိုင်	-9.83678
▁မှန်မှန်	-9.83712
ခြင်းဖြင့်	-9.83745
▁ဓာတ်ပုံး	-9.83781
ဖဲ	-9.83795
ခဲ့ပါသည်။	-9.83847
စရာကောင်း	-9.83887
ပေးဖို့	-9.83924
စိတ်ကူး	-9.83933
ပါလိမ့်မယ်	-9.84019
တာကတော့	-9.84021
▁သူကိုယ်တိုင်	-9.84038
ခင်ဗျ	-9.84077
▁ရတနာ	-9.84082
▁ကုန်း	-9.84105
▁သိချင်	-9.84109
ပင်လုံး	-9.84156
အနေနှင့်	-9.84172
▁စကားလုံး	-9.84193
ရေးအတွက်	-9.84198
ဘူတာ	-9.84201
ကတ်	-9.84265
▁ဝယ်ယူ	-9.84277
စီရင်	-9.84304
မှု၊	-9.84347
▁အပျို	-9.8435
နေ၍	-9.84401
လည်ပတ်	-9.84418
▁သတ္တဝါ	-9.84445
▁မြွေ	-9.84491
ဆိုပေမယ့်	-9.84588
အဆင့်	-9.84702
မိတာ	-9.84756
လျက်ရှိသည်။	-9.84797
ကျောင်းသို့	-9.84812
ပြောတဲ့	-9.84862
▁ပိ	-9.84872
သစ်တို့	-9.84894
ယူ၍	-9.85011
မပြတ်	-9.8508
ချင်တယ်	-9.85089
▁မောင်စံရှားမှာ	-9.85236
▁ကျော	-9.85273
▁မှတ်သား	-9.85297
တစ်အုပ်	-9.85366
▁ရဲ	-9.85387
▁မပါ	-9.85492
▁သည်းခံ	-9.85514
ဆိုကာ	-9.85529
လေလေ	-9.85583
အစစ်	-9.85684
▁မြန်မြန်	-9.85694
ပုံး	-9.85703
▁ပုဏ္ဏား	-9.85741
မျို	-9.85865
မှာပေါ့။	-9.85909
▁အင်တာနက်	-9.86034
▁္တရာယ်	-9.86034
▁သူ့ကိုယ်သူ	-9.86036
ခအနေ	-9.86046
▁ရှေးအခါက	-9.8605
▁မကြာခင်	-9.86061
စောင်	-9.86069
▁ပတ်ဝန်းကျင်	-9.86072
▁မတရား	-9.86073
သမားတွေ	-9.86082
ကြီးဟာ	-9.86083
ရာဇဝင်	-9.86117
နိုင်သော	-9.86162
နှစ်ဆယ်	-9.86174
ရှည်ရှည်	-9.86179
ရှိလို့	-9.86184
▁ထု	-9.86189
အမူအရာ	-9.86263
▁လူနာ	-9.86281
မြိုင်	-9.86297
▁ဟိုဘက်	-9.86324
နွမ်း	-9.86341
ြီး	-9.86359
ဆောက်တည်	-9.86388
▁သြော်	-9.86406
ကျရင်	-9.86463
ပ္ပ	-9.86469
မြန်မာ	-9.86474
ရန်အတွက်	-9.86486
ယဉ်	-9.86491
စာရေး	-9.86514
ပုံစံ	-9.86565
ဝပ်	-9.86648
ကြည့်သည်။	-9.86704
▁မရှိဘူး	-9.86787
▁ကိုက်	-9.86789
ပန်းချီ	-9.86823
ဟန်ဖြင့်	-9.86928
ပြုစု	-9.87041
▁ဆိုပါတယ်။	-9.87091
▁စိတ်ဓာတ်	-9.87106
တို့အား	-9.87134
တဲ့နေရာ	-9.87151
ပါရဲ့။	-9.87205
▁လူအများ	-9.87279
သွားလေ၏။	-9.87438
▁ရှိလေသည်။	-9.87459
ကျနေ	-9.8751
တစ်ထည်	-9.87554
▁ဆူ	-9.87571
နိုင်ဘဲ	-9.8771
သည့်အတွက်	-9.8772
ကြက်	-9.87724
ဘကြီး	-9.8773
▁ဖြစ်နိုင်	-9.8775
▁သု	-9.87843
တစ်ရပ်	-9.87847
▁တွေးမိ	-9.87991
▁ကျော်သူက	-9.88022
ထားကြ	-9.88055
▁ဖိ	-9.88056
▁မတွေ့ရ	-9.88184
▁ဆက်ပြီး	-9.88223
▁အင်အား	-9.88241
▁လင်	-9.88254
လာလေသည်။	-9.88314
လိုက်လေ၏။	-9.8843
လန်း	-9.88445
ရာသည်။	-9.88459
▁ဘု	-9.88463
အန်တီ	-9.88566
အောင်မြင်	-9.88603
တစ်ယောက်ယောက်	-9.88629
နြ္ဒေ	-9.88666
▁ဘွန်ဆရီ	-9.88666
တစ်ပြိုင်နက်	-9.88666
သိက္ခာ	-9.88667
ကျုံး	-9.88667
▁စသည်ဖြင့်	-9.88676
▁လေယာဉ်ပျံ	-9.8868
▁တွက်ချက်	-9.88682
တာကိုးခင်ဗျ။	-9.88687
▁အောင်အောင်	-9.8869
ခြစ်	-9.88733
တတ်ကြ	-9.88747
မောင်နှံ	-9.8878
▁အဲသလို	-9.8879
▁အမျိုးသား	-9.88795
မလဲ၊	-9.88795
ရင်လည်း	-9.88891
▁တံတား	-9.88908
မြူး	-9.88935
ရောက်နေ	-9.88986
အလျောက်	-9.89042
သေးသလဲ	-9.89048
ပြူး	-9.89056
▁နိုင်ငံရေး	-9.89135
ဒုံ	-9.89206
ဝက်	-9.8923
ပြန်ပြီ	-9.89273
▁ပညာရေး	-9.89292
ဝါသနာပါ	-9.89342
နေပြီး	-9.8938
အလှည့်	-9.89443
နှောင်	-9.89444
နှစ်သက်	-9.89523
ဘတ်	-9.89548
ကျား	-9.8962
ြဲ	-9.8964
တာဟာ	-9.89663
မဟုတ်လား။	-9.89718
သလိုလို	-9.89728
ကြေး	-9.89741
မဝတ်ရည်က	-9.89741
အရင်	-9.89812
▁မြေကြီး	-9.89856
အူ	-9.89882
▁ပင့်	-9.89958
ရွေ့	-9.89967
တို့တွင်	-9.89972
▁ချို	-9.90031
▁အကြောင်းကို	-9.90068
နိုင်ပါတယ်။	-9.90076
▁ခြေထောက်	-9.90214
တွေအားလုံး	-9.90264
အခါက	-9.90388
ကြားမှာ	-9.90407
ကွယ့်	-9.90475
▁အစား	-9.90496
မြေး	-9.90498
သွားလို့	-9.90541
ကြဲ	-9.90548
အခြေ	-9.90624
ဘက်မှ	-9.90759
ပေးခဲ့	-9.90874
▁လှပ	-9.90908
နေကြတဲ့	-9.90975
▁ကောင်	-9.91069
ခဲ့။	-9.91085
များကလည်း	-9.91198
▁တို့ကို	-9.91212
မရဘူး	-9.91251
▁အခုလို	-9.91352
နိမိတ်	-9.91368
အနေအထား	-9.9137
သားအဖ	-9.91378
▁ပြန်သွား	-9.91396
▁ချက်ပြုတ်	-9.91402
လင်မယား	-9.91403
▁လွန်ခဲ့တဲ့	-9.91406
▁ပွဲစားကြီး	-9.91435
▁ကာကွယ်	-9.9145
▁ရင်ဆိုင်	-9.91464
လွှား	-9.91484
▁သေနတ်	-9.91489
▁ပြုပြင်	-9.91507
တုံ့	-9.91511
စေတီ	-9.91637
လားဟု	-9.9166
▁မကျေနပ်	-9.91662
မဝတ်ရည်ကို	-9.91684
▁ဘယ်က	-9.91748
▁ဘကြီးမောင်	-9.91769
နေရသည်။	-9.91802
မှုတွေ	-9.91817
▁စာရေးဆရာ	-9.91899
နံဘေး	-9.91924
စာတမ်း	-9.91958
လူများ	-9.91974
ယံ	-9.92008
▁ဆန္ဒ	-9.92045
အချင်းချင်း	-9.92141
▁မောင်စံရှား၏	-9.92145
▁စိတ်ထဲ	-9.92179
ပန်လာ	-9.9222
ကလေးတစ်ခု	-9.92273
လူဝ	-9.92281
▁၊ပံး	-9.92336
▁မလိုက်	-9.9234
▁အကျိုးအကြောင်း	-9.92401
တဲ့လူက	-9.92418
ရပါင်း	-9.92451
သတိ	-9.92472
▁ထုံး	-9.92475
မိန်းကလေး	-9.92536
ခံပြီး	-9.92554
▁ကျွန်တော်မှာ	-9.92616
မကျန်	-9.92623
▁မတတ်နိုင်	-9.92623
ဝါယ	-9.92666
▁ပိုး	-9.92747
တွေလဲ	-9.92779
▁အနာ	-9.92785
▁ဒီနှစ်	-9.92826
▁မလာ	-9.92842
တစ်ခွက်	-9.92912
အမွေ	-9.92938
▁ကုန်သည်	-9.92947
လြဲ	-9.9295
▁ဆိုပြီး	-9.93001
▁စိမ်းက	-9.93042
▁ရှေးက	-9.93157
▁အမေ့	-9.93173
▁ဝေဖန်	-9.93212
▁သူ့အဖေ	-9.93237
▁စေတနာ	-9.9328
▁ဖန်	-9.93304
တစ်ဘက်	-9.93333
ပါ့မလား	-9.93351
အကျင့်	-9.93369
မျိုးတွေ	-9.93412
ခွင့်ရ	-9.93526
▁မပြု	-9.93535
မဟုတ်ဘဲ	-9.93618
▁ဘာလို့	-9.93624
တယ်တဲ့။	-9.93637
တစ်နေ့	-9.93729
မှုများ	-9.93765
▁လေးစား	-9.93778
▁ဘယ်လိုလုပ်	-9.93785
▁စိတ်ညစ်	-9.93862
လာတယ်	-9.93899
အကြိမ်	-9.93925
▁အာဏာ	-9.94015
▁ဖိုးသူတော်ကြီး	-9.94025
▁ထို့	-9.94065
လာ၍	-9.94085
ထင်ပါရဲ့	-9.94113
ဉ	-9.94123
နေရာတွင်	-9.94139
▁မနေ့က	-9.94141
မဂ္ဂဇင်း	-9.94145
ကိရိယာ	-9.94146
▁သက်ဇော်	-9.94147
▁ာံ	-9.94161
▁ပခုံး	-9.94173
▁ကိုယ့်ကိုယ်ကို	-9.94183
ဇင်	-9.94226
▁မနက်ဖြန်	-9.94256
▁ထုတ်ဝေ	-9.94259
▁ဆုံးဖြတ်ချက်	-9.94263
နှစ်ယောက်က	-9.9429
တဲ့နေရာမှာ	-9.94317
စရိုက်	-9.94335
▁နဖူး	-9.94356
▁မင်းခေါင်	-9.94385
▁ကန်	-9.94435
▁ညာ	-9.94561
▁နောက်နေ့	-9.94563
သလား။	-9.94611
ဆိုပါတော့	-9.94653
▁အကောင်	-9.94731
▁ခုတ်	-9.94774
ကောင်ကလေး	-9.94785
နိုင်စွမ်း	-9.9482
ကက်	-9.94823
ကျော	-9.94825
ိန်း	-9.94826
▁ကယ်	-9.9486
ကျည်	-9.94885
အတူ	-9.94907
လဲဆိုတော့	-9.9493
▁ဟား	-9.94958
ခဲ့ကြသည်။	-9.94962
ချယ်	-9.95048
ှုံ	-9.95161
အနည်းငယ်	-9.95175
▁နာမည်ကြီး	-9.9518
အစိုးရ	-9.95208
▁ရောက်သွား	-9.95218
တကယ်	-9.95245
ကြဖို့	-9.95251
ဖိုးသူတော်	-9.95354
နှံ	-9.9539
▁တောက်	-9.95407
သေတ္တာ	-9.95417
သံတွေ	-9.95418
▁သမီးက	-9.95431
▁ဆိုး	-9.95446
မောင်စံရှား	-9.95466
▁လှမ်းကြည့်	-9.95476
▁ထိုအချိန်	-9.9548
▁အင်းစိန်	-9.95523
ဘယ်လို	-9.95535
ရှိသေး	-9.95681
ချည်းပဲ	-9.95699
ရင်ဖြင့်	-9.95702
အတော်	-9.95718
လွန်း၍	-9.95818
▁ဆတ	-9.95875
ပေးရန်	-9.95904
ထစ်	-9.95959
တိုင်ပင်	-9.95964
▁အငယ်	-9.9615
ဘက်တွင်	-9.96176
ခြမ်း	-9.96207
ပြို	-9.9623
▁ဆာ	-9.96248
▁ဟူ၍	-9.96255
စကားပြော	-9.96294
ထားလို့	-9.9638
▁လွယ်	-9.96394
မှန်ကန်	-9.96408
လှပ	-9.96438
ရှိသေးတယ်	-9.96543
▁အိမ်ပြန်	-9.96596
လေးများကို	-9.96622
ပေဘူး	-9.96683
ရာမ	-9.96702
လောက်တော့	-9.96709
▁အစက	-9.96711
ည့်သည်တွေ	-9.96719
နေရင်	-9.96755
ယူသွား	-9.9677
▁အမေတို့	-9.96831
ရှိပါတယ်။	-9.96871
▁ဟင်	-9.96879
▁စက်ဘီး	-9.96941
▁သုတ်	-9.96944
မိန့်	-9.96964
▁ဝါသနာ	-9.96998
လှူဒါန်း	-9.97003
▁ကြျွန်တော်	-9.97003
အသီးသီး	-9.97012
ငိမ်	-9.97014
▁ချွေး	-9.97018
တည့်တည့်	-9.97019
▁အမြဲတမ်း	-9.97022
▁ကြောင်	-9.97028
သူရို့	-9.97041
▁လက်ညှိုး	-9.97042
သလဲ၊	-9.97045
နှိုင်း	-9.9705
ဗျိုင်း	-9.97065
နှီး	-9.97073
▁ပန်းချီကား	-9.97076
တိုတို	-9.97126
▁အုပ်ချုပ်	-9.97133
ကွေး	-9.97265
▁ဘယ်လိုမှ	-9.97265
ပွေ့	-9.97283
ွေ့	-9.97315
လိုက်ချင်	-9.97373
ပြန်ရောက်	-9.97495
ကံကောင်း	-9.97538
▁မသိ။	-9.97538
▁ဆေးတံ	-9.97544
သဖွယ်	-9.97563
▁ဆရာကြီး	-9.97623
▁မမေ့	-9.97644
ရာဇာ	-9.97681
ိမ	-9.97685
▁တမင်	-9.97704
▁ပြောကြ	-9.97766
▁ပြန်၍	-9.97857
တွေထဲမှာ	-9.97907
ကိုးကွယ်	-9.97929
တွေပဲ	-9.97964
ကြီးတစ်ခု	-9.9799
လိမ့်မယ်လို့	-9.98008
▁ဆက်သွယ်	-9.98038
▁ကျောင်းသူ	-9.98062
ကြရသည်။	-9.98103
လက်စ	-9.98162
▁ကွဲ	-9.98186
ထီး	-9.9819
ခဲ့ရသည်။	-9.98229
▁ရှင်းပြ	-9.98233
ပျက်စီး	-9.98254
▁ပင်ပန်း	-9.98304
အနား	-9.98314
▁ဖြစ်စေ	-9.98321
အကောင်	-9.98333
ကိုစံရှား	-9.98364
နှုတ်	-9.98374
▁မြနုသည်	-9.98482
နားထောင်	-9.98491
ပါကလား	-9.98504
ခင်မင်	-9.98527
ဘူးဗျ	-9.98613
တက်လာ	-9.98672
▁ခြင်	-9.98675
သွားကြသည်။	-9.98735
ကြိုးစား	-9.98772
▁လူကြီးတွေ	-9.98814
တော်တော်	-9.98893
စို့	-9.98904
▁ကျေးဇူးတင်	-9.98934
▁မိဖုရား	-9.98934
▁သြဇာ	-9.98976
မှုန့်	-9.99029
ဘူးဆိုတာ	-9.9906
တွေးမိ	-9.99131
▁ပြုတ်	-9.99132
▁မဟုတ်ဘဲ	-9.99185
▁တစ်ရက်	-9.99396
ပစ္စည်းတွေ	-9.9947
အပ်သော	-9.99482
▁တည်းခို	-9.99511
သွားပြီ။	-9.99643
▁တိုက်ခိုက်	-9.99722
▁ရှိကြ	-9.99727
သာယာ	-9.99833
ရခါက်	-9.99948
▁ဘာပြုလို့	-9.9995
စီးရီး	-9.99953
တွန့်	-9.99961
တံဆိပ်	-9.9997
စင်စစ်	-9.99991
▁အားပေး	-9.99997
ရွှေ့	-9.99997
ညှင်း	-10
လေးများ	-10.0003
▁ထူးဆန်း	-10.0003
ေးရောင်း	-10.0004
ပုန်း	-10.0007
ဆုံးရှုံး	-10.0009
ေးကြီး	-10.0009
ကြောက်ရွံ့	-10.0011
တဲ့ကိစ္စ	-10.0011
▁နေ့တိုင်း	-10.0015
မင်းသား	-10.0018
ပျို့	-10.002
မေးတော့	-10.0023
▁သူငယ်	-10.0029
▁ဆေးခန်း	-10.0037
▁နြ	-10.0043
▁သူ့မှာ	-10.0047
ကျသွား	-10.0048
ကောင်းကင်မှာ	-10.0051
ရေးသား	-10.0053
မယ်ဆိုတာ	-10.0053
အိမ်ထောင်	-10.0054
▁မပေး	-10.0055
▁မနေ	-10.0056
မလားလို့	-10.0059
သဗျ။	-10.006
▁ရန်ကုန်မှာ	-10.006
▁စစ်ပွဲ	-10.007
မိရင်	-10.0071
▁ကျွန်မက	-10.0075
မရီက	-10.0079
▁ပီတာ	-10.0086
ရမယ်ဆိုရင်	-10.0092
မြို့နယ်	-10.0096
ဗျို့	-10.0097
▁တစ်နေရာ	-10.0098
ိင	-10.01
ရှေ့မှ	-10.0103
▁စံ	-10.0104
▁ပေါ်ပေါက်	-10.0115
ချင်တယ်။	-10.0122
▁သကင်္န်း	-10.0126
▁အကူအညီ	-10.0127
▁ဖျက်	-10.0127
▁အဖ	-10.0133
▁ဆိုသော	-10.0135
နှစ်မျိုး	-10.0144
ဒိ	-10.0148
▁လုပ်ပေး	-10.0156
ညက	-10.0156
‘	-10.0162
တော့မယ်။	-10.0163
ရှိ၍	-10.0163
▁ခင်မင်	-10.0167
မျှသာ	-10.0175
အထက်	-10.0176
ိစ	-10.0178
ကြည့်ကာ	-10.0185
တဟ	-10.0188
▁ခေါင်းကို	-10.0188
ဖခင်	-10.0191
▁နက်ဖြန်	-10.0204
▁အချင်းချင်း	-10.0212
ဘဲနဲ့	-10.0213
▁အင်မတန်မှ	-10.0216
ခန္ဓာ	-10.022
ထ၍	-10.0222
▁မြင့်	-10.0227
▁ဘာလဲ	-10.024
▁ကြေး	-10.0242
▁ထိုင်နေ	-10.0263
ပါဝင်	-10.0264
သန့်	-10.0266
▁ယခင်	-10.0266
ရှာသည်။	-10.027
ဘုန်းကြီးကျောင်း	-10.0277
မသိဘူး	-10.0277
▁အမေသည်	-10.028
ရမှာပေါ့	-10.028
▁အဒေါ်	-10.0281
လျှော	-10.0281
ကျော်ကျော်	-10.0291
▁ဦးပေါက်ဆိန်	-10.0297
ကန့်လန့်	-10.0298
▁မင်းသီတာ	-10.0298
အကြံအစည်	-10.0298
ဆယ့်ငါး	-10.0298
▁အဆင်	-10.0298
ကြေကွဲ	-10.03
ကွယ့်။	-10.03
▁ငပေါ်လာ	-10.0301
၊မိ့	-10.0304
▁ပျော်ရွှင်	-10.0305
▁လက်မ	-10.0305
၁၂	-10.0306
▁မယ်ရိုး	-10.0308
▁ပင်လယ်ပြင်	-10.0308
မုချ	-10.0309
ရှင်။	-10.0311
ပိုင်ရှင်	-10.0312
နှိုက်	-10.0315
▁ပါရီ	-10.0318
▁ဦးထွန်း	-10.0319
▁လမ်းမ	-10.0319
နှေး	-10.0321
▁လူရွယ်	-10.0323
▁ငှက်	-10.0325
▁ကတိ	-10.0325
▁ဖြစ်၏။	-10.0327
ပါမယ်	-10.0331
▁သူ့ဘာသာ	-10.0339
▁မြည်	-10.0341
▁စပါး	-10.0342
▁စိတ်မကောင်း	-10.0344
ဆို၍	-10.0346
ရပါရောင်	-10.0348
▁လှည့်ကြည့်	-10.0367
နောက်သို့	-10.0368
ကြီးစွာ	-10.0369
စားသောက်	-10.0371
▁ထိုသူ၏	-10.0377
▁အဆက်	-10.0396
▁င်္ုံမပုတရေ	-10.0411
▁လိုက်လာ	-10.0414
▁ဦးလေး	-10.0422
▁ရေးထား	-10.0422
▁သဲသဲသည်	-10.0422
ဆရာရယ်	-10.0423
ချစ်သူ	-10.0427
▁ဘီလူး	-10.0434
ရပါတာ	-10.044
ဘာမှ	-10.0444
ဖြစ်သည့်	-10.0449
▁သွားပြီး	-10.0449
▁တန်ခိုး	-10.045
သည်အထိ	-10.0456
အားကြီး	-10.0459
မရှိတော့	-10.046
လျက်ရှိရာ	-10.0463
အခိုက်	-10.0465
လှတဲ့	-10.0469
ဘုံ	-10.0469
များအား	-10.0469
▁မဆို	-10.047
▁ဂရိ	-10.0471
▁ဒိုင်	-10.0478
ပင်ပန်း	-10.0484
မျက်လုံး	-10.0486
ပြသ	-10.0487
▁လှမ်း၍	-10.0488
လွင့်	-10.0489
▁သမီးကို	-10.049
မေးမြန်း	-10.049
ကျောင်းတွင်	-10.0492
အစုံ	-10.0493
တိုန	-10.0504
▁အတန်ကြာ	-10.0513
ချင်စိတ်	-10.0517
မယ်ြ	-10.0523
မရဘူး။	-10.0524
ောင်	-10.0526
အခါမှာ	-10.0526
▁ဆင်ခြင်	-10.0527
ကျမှ	-10.0528
တွေကလဲ	-10.053
▁နှစ်ပေါင်း	-10.0534
▁ပြောနေ	-10.0536
သေချာ	-10.0545
▁ပြန်ပြီး	-10.0546
နိုင်ရန်	-10.0549
▁ဖွဲ့	-10.0552
ကလေးတွေကို	-10.0591
▁စကားကို	-10.0594
▁တွေးတော	-10.0595
သယ်	-10.0596
ဖြည်းဖြည်း	-10.0599
ဆုံးမ	-10.0603
▁ဆိုကရေးတီး	-10.061
▁မောင်ရောင်နီ	-10.061
နံပါတ်	-10.061
ခင်ပွန်း	-10.061
ဆည်းပူး	-10.061
ရေစက်ချ	-10.0611
ကုံး	-10.0611
ဖျောက်	-10.0612
တိတ်တိတ်	-10.0612
ခမ်းနား	-10.0613
ပြောရရင်	-10.0613
▁ထို့ပြင်	-10.0615
▁ဝန်ခံ	-10.0615
▁၊ကိးစား	-10.0616
တန်ဆာ	-10.0627
နောင်	-10.0627
▁သဲသဲကို	-10.063
▁တဆိတ်	-10.0631
မှတ်ဉာဏ်	-10.0633
နေပါဦး	-10.0636
စောင့်ဆိုင်း	-10.0636
▁ရခိုင်	-10.0637
စိပ်	-10.0638
မရှိတဲ့	-10.064
ခွဲခြား	-10.0644
ကလေးနဲ့	-10.0647
မ္မာ့	-10.0649
လားဟင်	-10.0654
▁ရေတွင်း	-10.0657
▁စိတ်ဆိုး	-10.0667
▁အားနာ	-10.0668
တစ်စ	-10.0675
▁အိတ်	-10.0676
▁ရှေ့က	-10.0677
▁ကူ	-10.068
ချီး	-10.068
ဖြစ်တယ်။	-10.068
ရှူ	-10.0682
ချိန်တွင်	-10.0683
လိုပင်	-10.0685
▁အလုပ်သမား	-10.069
မည့်သူ	-10.0691
မြင်းစောင်း	-10.0696
ပြန့်	-10.0708
▁အလေ့	-10.0709
လက္ခဏာ	-10.0717
▁အသင်း	-10.0717
▁ကျွမ်းကျင်	-10.0719
မကြောက်	-10.072
▁ရြ	-10.0721
▁ကျုပ်လဲ	-10.0724
▁အေးအေး	-10.0732
▁တုန်လှုပ်	-10.0734
ကြားဖူး	-10.0734
▁လျှောက်လာ	-10.0741
သည့်ပြင်	-10.0743
▁တံခါးကို	-10.0746
▁အခွင့်အရေး	-10.0754
▁အစဉ်	-10.0757
ထောက်ခံ	-10.076
ဘုန်းတော်ကြီး	-10.076
စုံစမ်း	-10.0762
ညရေ	-10.0762
▁ဟြ	-10.0762
မ္မာက	-10.0765
ကွေ့	-10.077
▁စောင့်နေ	-10.077
▁ခရီးသွား	-10.0774
အင်	-10.0776
ခွင်	-10.0778
▁အရမ်း	-10.0784
လျှင်လည်း	-10.0794
ကြပါ။	-10.0806
▁မသိဘူး။	-10.081
တဲ့အကောင်	-10.0812
ကျွန်	-10.0823
▁တိုက်ပွဲ	-10.0823
▁စစ်ဆေး	-10.0826
နေသေး	-10.0827
ဆရာဝန်	-10.084
ပထမ	-10.0849
ပေါင်းများစွာ	-10.0858
နေလေ	-10.0858
▁ခရီးသည်	-10.0859
ငြင်း	-10.0861
▁သို့သော်လည်း	-10.0862
▁အုတ်	-10.0862
▁အနီး	-10.0862
နဲ့ပဲ	-10.0868
တစ်ကြိမ်	-10.088
▁အပေါက်	-10.0886
ချိန်မှာ	-10.0887
▁သုံးစွဲ	-10.0891
မျိုးစုံ	-10.0894
ဖြူဖြူ	-10.0896
▁စတဲ့	-10.0897
လုပ်ဆောင်	-10.091
▁အလ	-10.0916
ဘုန်း	-10.0917
▁ရှုံး	-10.0917
ရမှာလဲ	-10.0919
လို့ပဲ	-10.0921
ကိုယ်တော်	-10.0924
ညှိုး	-10.0924
နဲ့ပတ်သက်	-10.0927
▁အလွယ်တကူ	-10.0933
ရိုသေ	-10.0933
ဂ္ဂ	-10.0933
▁အကဲခတ်	-10.0933
ရဲဘော်	-10.0933
လှေ	-10.0933
ပက်လက်ကုလားထိုင်	-10.0933
▁ကြီးကြီး	-10.0934
▁ကြယ်ကလေးတွေ	-10.0934
▁ထပ်မံ	-10.0935
▁တစ်စုံတစ်ယောက်	-10.0936
▁ဘီယာ	-10.0936
▁ဒဏ်ရာ	-10.0937
ဆိုသည်မှာ	-10.0937
လွှင့်	-10.0938
▁မောင်ကံကောင်း	-10.0938
▁ယခုအခါ	-10.0943
▁စစ်ကိုင်း	-10.0945
▁မမအေး	-10.0946
လိမ့်မည်	-10.0946
ပိုင်ဆိုင်	-10.0947
သားပဲ	-10.0949
အလှူခံ	-10.0949
▁ဓားပြ	-10.0951
ဓလေ့	-10.0953
▁သဘောတူ	-10.0955
ပေါ့ဗျာ။	-10.0957
▁ပွတ်	-10.0957
▁ဒါတွေ	-10.0957
ထက်ပို	-10.0958
▁ထမင်းချက်	-10.0961
▁မျက်မှန်	-10.0963
ညှစ်	-10.0963
ဆည်း	-10.0966
ဖြာ	-10.097
အတွင်းမှာ	-10.0972
▁သူ့သား	-10.0974
▁သည်တစ်ခါ	-10.0974
▁တဖန်	-10.0974
သွားခဲ့	-10.0974
ခက်ခဲ	-10.0975
ည့်သည်များ	-10.0975
▁မခံနိုင်	-10.0976
▁အဲဒါတွေ	-10.0978
▁ဒေါ်လာ	-10.0979
ချပေး	-10.0981
▁ရင်ထဲမှာ	-10.0984
လေသည်	-10.0984
▁သရက်	-10.0986
▁သို့သော်လဲ	-10.0988
ဗျို့။	-10.0992
လောက်ရှိ	-10.1001
ရှိလျှင်	-10.1001
နှစ်ဖက်	-10.1004
▁အလျင်	-10.1013
တတ်တာ	-10.1015
ထိန်	-10.1016
ပြန်ရာ	-10.1017
ဆင်းရဲ	-10.1018
မှုနဲ့	-10.1019
ထည့်ပြီး	-10.1022
စတ	-10.1025
ဇာတိ	-10.1033
▁သူငယ်မ	-10.1033
နေကြလေသည်။	-10.1037
ဒီတင်	-10.1037
▁ညာဘက်	-10.1043
▁လွင့်	-10.106
သြ	-10.1068
▁စီမံ	-10.1073
▁တစ်နေ့တွင်	-10.1075
သွားရင်	-10.108
▁တိုက်တွန်း	-10.1081
▁လုပ်ကြ	-10.1083
ယဉ်ကျေးမှု	-10.1085
မိကြ	-10.1089
မထင်	-10.109
တယ်မဟုတ်လား	-10.1094
ဆရာရဲ့	-10.1097
တွ	-10.1097
▁သည်အကြောင်း	-10.1097
▁မြန်	-10.1104
နပ်	-10.1121
မလုပ်	-10.1122
မံ	-10.1123
ကုသ	-10.1129
ခုတင်	-10.1135
ိဏ္	-10.1139
▁အရိုး	-10.1144
ဆိုသော်	-10.1147
▁ဒီကောင်	-10.1148
မငွေ	-10.1149
ရဲရဲ	-10.1156
မျိုးနဲ့	-10.1168
▁ပျောက်သွား	-10.1172
▁ဟူသော	-10.1183
▁မိနစ်	-10.1183
စိုးရိမ်	-10.1184
ငတ	-10.1185
အထင်	-10.1186
စောစော	-10.1191
သဘေင်္ာ	-10.1191
မေးခွန်း	-10.1194
နှုတ်ဆက်	-10.1196
ကျွန်တော့်	-10.12
▁ဒါန	-10.1204
ထင်တယ်။	-10.1205
▁ဟြုတ်	-10.121
တဲ့နေ့	-10.121
ကြရတယ်။	-10.1211
▁မယုံ	-10.1212
▁သက်သေ	-10.1215
▁ဝေဒနာ	-10.1217
ဆရာ၊	-10.1228
ခဲ့သည့်	-10.1234
▁မင့်	-10.1243
▁အရင်း	-10.1244
ရှိရင်	-10.125
▁ဒြါ	-10.1253
ယာဉ်	-10.1253
ခွေး	-10.1254
တခြား	-10.1254
အတူတူ	-10.1262
▁အမိုးက	-10.1263
▁အနာဂတ်	-10.1266
▁ကိုသန်းစော	-10.1266
ဖြိုး	-10.1266
ကြင်နာ	-10.1266
အဆောက်အဦ	-10.1266
▁လူသတ်မှု	-10.1266
လျှာ	-10.1267
▁ဇွဲ	-10.1267
ဆိပ်ကမ်း	-10.1268
▁အဆင်သင့်	-10.127
အေးချမ်း	-10.127
▁လခ	-10.1274
ခန့်ရှိ	-10.128
သားရေအိတ်	-10.1281
အကြား	-10.1284
နေရစ်	-10.1286
ဆိုသလို	-10.1291
ေးကွက်	-10.1295
▁အကြောင်းအရာ	-10.1295
သန	-10.1296
ထားပါ	-10.1306
ယုတ်	-10.1307
▁အဆိုပါ	-10.1307
ခဲ့ရတာ	-10.1308
ပြီးတဲ့နောက်	-10.1308
ဘဝမှာ	-10.131
▁စာဖတ်	-10.131
▁အာရုံ	-10.1313
ညောင်း	-10.1313
ကြည့်မိ	-10.1314
▁ကြိမ်	-10.1314
တော့၏။	-10.1327
လိမ်း	-10.1328
▁မြင်းကို	-10.1328
▁ဆင်းလာ	-10.1334
ပေးမယ်	-10.1336
▁အရှေ့ဘက်	-10.1341
အပိုင်း	-10.1344
▁ဘိုး	-10.1356
▁ဦးလူ	-10.1358
▁အဆို	-10.1359
ခြင်းဖြစ်သည်။	-10.1363
ထား၍	-10.137
▁ဒါလောက်	-10.1372
ဟန်ဆောင်	-10.1373
ဘူးြ	-10.1373
▁သို့မဟုတ	-10.1376
သက်ဆိုင်	-10.138
ရက်စက်	-10.1381
ပဲဖြစ်ဖြစ်	-10.1383
▁ဒါက	-10.1386
ဆိုတာက	-10.1387
▁ဘာမျှမ	-10.1388
နော	-10.1389
အမှတ်	-10.139
ဂျင်	-10.1392
▁ဘယ်အချိန်	-10.1393
ထားတယ်	-10.1394
▁တာဝန်ယူ	-10.1398
ရှိသမျှ	-10.1403
ဗေဒ	-10.1404
ကြည့်ကြ	-10.1408
အိတ်ထဲ	-10.141
ခဲ့လေသည်။	-10.142
▁အော်ဟစ်	-10.1421
သက်သာ	-10.1424
ညံ	-10.1465
သုံးရာ	-10.1468
▁ပတ်သက်	-10.1468
ရိပ်မိ	-10.1471
ယူထား	-10.1477
▁လြ	-10.1491
ဦးမည်	-10.1492
သံများ	-10.1507
ရောင်းချ	-10.1514
▁သည်အိမ်	-10.1523
▁လေ့ကျင့်	-10.1532
ရှေ့တွင်	-10.1534
▁ဆေးတံကို	-10.1537
တဲ့လူတစ်ယောက်	-10.1541
တုံ	-10.1547
▁ခြ	-10.1548
▁ကြည့်သည်။	-10.1554
ုပ	-10.1555
စက္ကူ	-10.1555
အဘိုးကြီး	-10.1558
အခု	-10.1559
သတ္တိ	-10.156
ိာ	-10.156
ခဲ့ပြီ	-10.157
▁ဘကြီးမောင်က	-10.1571
မိလေသည်။	-10.1574
နေပုံ	-10.1576
ပန်းကန်	-10.1576
ညည်း	-10.1577
▁နှစ်သက်	-10.1578
တံတား	-10.1579
မရောက်	-10.1587
ထောင်း	-10.1588
စာရွက်	-10.1593
▁ရက်နေ့	-10.1593
ချိ	-10.1597
ကြောင်	-10.16
ဝှေ့	-10.1602
▁မဖြစ်နိုင်	-10.1602
ဒေဝ	-10.1607
▁မုန့်ဟင်းခါး	-10.1609
▁ဘောင်းဘီ	-10.1611
ပရိုဂရမ်	-10.1611
ဖရုဂရာမ	-10.1611
လောလောဆယ်	-10.1611
▁သတိုးမင်းဖျား	-10.1611
အံ့အားသင့်	-10.1611
▁ပျူတာ	-10.1611
▁ဒါ့ကြောင့်	-10.1611
▁အဘိုးအို	-10.1611
ခလုတ်	-10.1611
▁မောင်ဘဝင်း	-10.1611
လျှို	-10.1611
▁လှေကား	-10.1612
▁ခရု	-10.1616
▁တစ်ခါတစ်ခါ	-10.1617
▁ပြင်သစ်	-10.1618
ကျွေးမွေး	-10.1619
▁ဒူး	-10.1619
▁မီးမလာ	-10.1622
ခွန်း	-10.1623
▁ကြယ်	-10.1623
လောက်ကြာ	-10.1625
▁ရပ်တည်	-10.1626
လိမ့်မည်ဟု	-10.1627
အတွင်းသို့	-10.1627
ထားပါတယ်။	-10.1631
▁သင်ကြား	-10.1632
▁ရေရွတ်	-10.1635
▁ခင်လွမ်းက	-10.1635
▁လက်ဝဲ	-10.1635
ကြည့်ရင်း	-10.1643
ဇွန်း	-10.1646
▁တည်ဆောက်	-10.1648
▁သခင်	-10.165
ြိ	-10.1653
▁ရွာထဲ	-10.1657
ပါအုံး	-10.1658
▁ဘကြီးက	-10.1658
▁အရှုံး	-10.1659
▁ရိပ်မိ	-10.1659
▁တွန်း	-10.166
နားက	-10.1669
▁နိုင်ငံတော်	-10.167
သွ	-10.167
▁မေမေထား	-10.167
ခဲ့သူ	-10.1674
တွေချည်း	-10.1675
▁စာမျက်နှာ	-10.1676
ကြည့်လိုက်တော့	-10.1677
▁မရှိ။	-10.1686
▁မဝယ်	-10.1688
ခုတ်	-10.1698
ဖြစ်ပါသည်။	-10.1699
လုပ်တဲ့	-10.1703
▁ဆိတ်	-10.1706
နိုင်ငံတွေ	-10.1728
▁ကျွန်တော့်အား	-10.1728
▁အနံ့	-10.1729
ကြည့်ရတာ	-10.173
နာမည်က	-10.1735
▁အလောင်း	-10.1767
လို့မရ	-10.1776
ပါလား၊	-10.1785
▁လျော့	-10.1799
▁ဒါရိုက်တာ	-10.1799
ိလ	-10.1806
လိုက်ကြတာ	-10.1815
စာပေ	-10.1816
တယ်မဟုတ်လား။	-10.1817
▁မကြာ	-10.1831
လေးယောက်	-10.1831
▁စောစော	-10.184
မောင်ရယ်	-10.1841
သင်တန်း	-10.1854
ကွယ်။	-10.1889
▁တစ်ချိန်	-10.1901
ကျင်း	-10.1908
ရှိလေသည်။	-10.1913
▁ရည်ရွယ်ချက်	-10.1922
ုလ	-10.1935
▁မိဘတွေ	-10.1938
အဓိပ္ပာယ်	-10.1948
ကြည့်၍	-10.1949
အဲဒီ	-10.1951
▁ငြါ	-10.1954
▁ဘိုးမှီ	-10.1958
မြင့်မား	-10.196
▁ရည်ရွယ်	-10.1962
အဘွား	-10.1966
လျော်	-10.1967
ရေနွေး	-10.1968
▁ခင်ထားရီ	-10.1968
▁ခြင်ဗျား	-10.1968
▁ကင်မရာ	-10.1968
▁အကယ်၍	-10.1968
အဖွဲ့အစည်း	-10.1968
ပုစွန်	-10.1968
▁ဝမ်းသာအားရ	-10.1968
▁ထွေးထွေး	-10.1968
▁လောဘ	-10.1969
▁မီးရထား	-10.197
▁အကန့်	-10.1971
▁ဆင်းသွား	-10.1972
စီစဉ်	-10.1972
▁အလိုလို	-10.1973
▁မြန်မာနိုင်ငံ	-10.1973
ညွှန်ကြား	-10.1973
ငေါ	-10.1976
▁မောင့်	-10.1977
▁မြင်းရထား	-10.1979
ကုလား	-10.198
▁သေချာစွာ	-10.1981
▁ပန်းချီဆရာ	-10.1985
ချည့်	-10.1986
ဘယ်သူ	-10.1989
▁ှိဂ	-10.199
ဝေးဝေး	-10.199
▁လှံ	-10.1993
▁အနားယူ	-10.1994
အောက်သို့	-10.1995
ဖောင်း	-10.1997
ရပါင်းလဲ	-10.2
ပါပေတယ်	-10.2001
ဆောင်းပါး	-10.2003
တဲ့သူတွေ	-10.2004
သတင်းစာ	-10.2014
စာတွေ	-10.2014
▁ဖောက်ပြန်	-10.2021
▁အထင်ကြီး	-10.2032
အဖြစ်ကို	-10.2032
မရှိပါဘူး	-10.2038
ဖွယ်ရာ	-10.2043
ထွက်ပြီး	-10.2048
▁ကျောင်းထိုင်	-10.2055
▁ရော့	-10.2056
အလှူ	-10.2062
တဲ့အပြင်	-10.2072
▁ရောက်ရှိ	-10.2077
ဆိုလို့ရှိရင်	-10.208
▁လှည့်ပတ်	-10.208
▁ယူသွား	-10.2084
တယ်ကွယ့်။	-10.2089
▁ဂရုမစိုက်	-10.2103
▁အားလုံးက	-10.2105
မြင်ကွင်း	-10.2107
သုံးပါး	-10.2113
လင့်	-10.2127
▁ထားသည်	-10.2128
တက်ကြွ	-10.2132
▁သဒ္ဒါ	-10.2133
အပြုံး	-10.2139
▁မကြိုက်	-10.2142
သနား	-10.2144
မကြည့်	-10.2148
တို့နဲ့	-10.216
▁ပစ္စည်းတွေ	-10.2163
သည်ဖြစ်စေ	-10.2172
ရှိပြီ	-10.2185
သမျှကို	-10.2185
ကျလာ	-10.2185
▁သမီးကြီး	-10.2185
▁ဒီကိစ္စ	-10.2186
▁ခါတိုင်း	-10.2195
▁လုပ်ချင်	-10.2196
မသင့်	-10.2199
လုံလောက်	-10.2202
ရသည်မှာ	-10.2208
▁အရည်	-10.2208
ငါးပါး	-10.2221
သင်ကြား	-10.2224
အသိ	-10.2227
လားလို့	-10.2228
စိတ်တွေ	-10.2229
ထည့်လိုက်	-10.223
▁များများ	-10.2231
▁ညောင်ပင်	-10.2241
နေပါတယ်။	-10.2246
ဆင်ခြင်	-10.2248
တကျ	-10.2248
တစ်ည	-10.2249
ပေါ့ဗျာ	-10.2252
ဘုရားကြီး	-10.2257
▁ချိတ်	-10.2257
▁အဖေက	-10.226
▁အလင်း	-10.2261
▁ကျောင်းသားတွေ	-10.2262
▁၂၁	-10.2266
နောက်မှ	-10.227
သူတွေက	-10.2274
ဘေးက	-10.2279
▁ချီးမွမ်း	-10.2285
ရမလား	-10.2286
ကိုင်ကာ	-10.2288
အစ်ကိုကြီး	-10.2291
မယ်ဆို	-10.2303
▁ကမ်းခြေ	-10.2319
▁ဘယ်နှစ်	-10.2324
▁ကုသိုလ်	-10.2327
ဆရာကြီး	-10.2327
ပဉ္စင်း	-10.2335
ပည့်	-10.2335
မဆိုင်	-10.2337
တိရစ္ဆာန်	-10.2338
သကေင်္တ	-10.2338
▁ဂျိန်းသြစတင်	-10.2338
▁စံပယ်၊မိင်	-10.2338
▁ကျူရှင်	-10.2338
▁တစ်ချို့	-10.2338
▁အောင်နိုင်ဦး	-10.2338
▁ဒုံး	-10.2338
▁ခန္ဓာကိုယ်	-10.2339
▁အဆင်ပြေ	-10.234
▁စည်ကား	-10.2341
ထင်မြင်ချက်	-10.2341
အဲဒါ	-10.2342
နှိုး	-10.2342
ရှုပ်ထွေး	-10.2342
▁ငွေကြေး	-10.2345
▁ညက	-10.2347
▁ဘြာ	-10.2348
▁မီးခိုး	-10.2352
▁ဦးသူတော်	-10.2352
စ၊ပ	-10.2352
လိုပါတယ်။	-10.2354
ချိုင့်	-10.2355
▁တစ်သက်လုံး	-10.2359
▁ခလောက်နို့နယ်	-10.236
▁မင်းဆွေ	-10.2362
တိတိ	-10.2364
ဖြီး	-10.2366
တစ်နေရာ	-10.2367
ဇာတ်ကား	-10.2369
အဖေက	-10.2372
ရှင်းလင်း	-10.2376
ဟင်	-10.2377
ခုံး	-10.2388
ခမ်း	-10.2389
ပေပြီ။	-10.239
ကြားဘူး	-10.2392
ပြသည်။	-10.2392
ဒီလိုဆို	-10.2395
အရေးကြီး	-10.2396
ကြယ်	-10.2399
ဟြာ	-10.2403
တော်တော်များများ	-10.2404
ဆင်းသွား	-10.2406
စိမ့်	-10.2413
သတိရ	-10.2413
▁ထိုကဲ့သို့	-10.2418
▁တစ်ကြိမ်	-10.2431
▁လိုက်နာ	-10.2434
▁လက်ဆောင်	-10.2436
▁ထွကခွါ	-10.2439
▁မြေပုံ	-10.2443
ရှိကြောင်း	-10.2447
▁မြို့တော်	-10.2464
▁ခုနှစ်တွင်	-10.2468
မဏ္	-10.2468
▁လက်တွေ့	-10.2472
ဆောင်း	-10.2473
▁သူစိမ်းကြီး	-10.2473
▁မိဖုရားကြီး	-10.2474
▁လူတို့	-10.2483
စားပွဲပေါ်	-10.249
မစား	-10.2491
▁စကားတွေ	-10.2491
▁ညစာ	-10.2491
▁ယောက်ျား	-10.2501
▁သိကြ	-10.2502
▁ခင်လွမ်းသည်	-10.2512
▁ကျန်းမာရေး	-10.2515
ထူးခြား	-10.2517
▁အစရှိ	-10.2519
တတ်သူ	-10.2525
ပေါများ	-10.2526
▁ဘုန်းကြီးက	-10.2527
ထင်ပါရဲ့။	-10.2529
သခင်	-10.2529
တစ်ခုမှာ	-10.2534
▁အဘိဓမ္မာ	-10.2536
ကလွဲ	-10.2543
▁ထုတ်ပေး	-10.2544
အရောက်	-10.2546
ဝင်စား	-10.2547
ရွာသို့	-10.2548
သူများကို	-10.255
▁စားစရာ	-10.2566
▁အခက်အခဲ	-10.2572
▁ကျော်သူတို့	-10.2573
ထိုင်ပြီး	-10.2579
▁ဆိုလို	-10.2586
▁ပန်းချီ	-10.2594
▁နင်တို့	-10.2599
▁ဂရုစိုက်	-10.2604
▁နောက်ဖေး	-10.2604
▁တယ်ပြီး	-10.2605
▁ခလောက်နို့က	-10.2611
အပါး	-10.2614
နှော	-10.2617
မှတ်တယ်	-10.2625
နိုင်မည်	-10.2632
▁ခံယူ	-10.2636
သွားပါတယ်။	-10.2644
ပါဘူးဗျာ	-10.2645
▁မမြင်ရ	-10.2647
ကအစ	-10.265
▁အဆိုတော်	-10.2651
မင်းတို့	-10.2657
ထွာ	-10.2661
လေသတည်း	-10.2671
ရှုံး	-10.2681
ခဲ့တယ်	-10.2683
▁မဟုတ်တော့	-10.2687
▁ထိုသူငယ်	-10.269
▁ပျော်စရာ	-10.2707
ခမျာ	-10.2708
လွှာ	-10.2708
▁တစ်အိမ်	-10.2708
တနဂင်္နွေ	-10.2711
▁ဒေါ်ဒေါ်	-10.2716
▁ဆိုက်	-10.2717
▁ဒေါက်တာ	-10.272
▁ဒီတစ်ခါ	-10.272
▁ထုံးစံ	-10.272
လုံခြုံ	-10.272
ကျေနပ်	-10.2721
ဂိုဏ်း	-10.2721
▁ဟိုလူ	-10.2722
ပျစ်	-10.2723
ခြသေင့်္	-10.2723
နဒုစတရယ	-10.2723
▁ဗြိတိသျှ	-10.2723
▁သုတေသန	-10.2723
ခဲယဉ်း	-10.2723
ဇော်ဂျီ	-10.2723
▁ချီးကျူး	-10.2723
▁ရည်းစား	-10.2723
သက္ကရာဇ်	-10.2723
ဖြုန်း	-10.2723
သဘင်	-10.2723
▁ပြည်ထောင်စု	-10.2723
▁ရင်းနှီး	-10.2724
▁သိန်းကျော်	-10.2724
▁မကြာခဏ	-10.2724
▁သိမ်းဆည်း	-10.2724
ပီးသား	-10.2725
ကင်ဆာ	-10.2726
ပေါြ့	-10.2728
▁မည်မျှ	-10.273
▁ဖြေရှင်း	-10.273
▁လက်ဖက်ရည်ဆိုင်	-10.2731
အမယ်လေး	-10.2733
▁ဖျက်ဆီး	-10.2733
▁ရာထူး	-10.2734
▁စနေနေ့	-10.2735
▁ကူးစက်	-10.2735
▁ဘယ်နည်းနဲ့	-10.2736
▁ချိန်း	-10.2738
▁တရားဟော	-10.2741
▁ု၏	-10.2746
ထပြီး	-10.2747
ည့်ခံ	-10.2749
သုခ	-10.2752
ပြည့်ဝ	-10.2753
▁ဒုက္ခရောက်	-10.2754
ပြန်၏။	-10.2757
မှတ်တမ်း	-10.2757
▁တင်ပြ	-10.2757
ဟပ်	-10.2762
▁မောင်စံရှားအား	-10.2766
▁အားထုတ်	-10.2766
ပုဏ္ဏား	-10.2767
▁ဆား	-10.2768
ရွာတစ်ရွာတွင်	-10.2768
ပါတယ်ဘုရား	-10.2769
ပါ့မလဲ	-10.277
တိုက်ခိုက်	-10.2771
ဇာတ်လမ်း	-10.2777
တလေ	-10.2778
▁မသေ	-10.2781
ပျောက်သွား	-10.2782
▁ပြောတယ်။	-10.2784
နွား	-10.2787
▁ငပလီ၏	-10.2792
ထုတ်ပြီး	-10.2792
ချစ်ခင်	-10.2794
ဒါပေမယ့်	-10.2797
▁အရောင်း	-10.2799
လိုက်လေ	-10.2801
မချ	-10.2804
ပါတော့တယ်။	-10.2805
နိုင်ငံမှာ	-10.2806
သုံးသပ်	-10.281
▁ဝတ်ဆင်	-10.281
နေ့ည	-10.2812
ကွဲ့။	-10.2812
ဆုံးဖြတ်	-10.2817
ထားလေသည်။	-10.2825
▁သီချင်းဆို	-10.2831
အပြား	-10.2832
စေသည်။	-10.2847
လမ်းကြောင်း	-10.2848
စွက်	-10.2849
▁တား	-10.285
လာသည်ကို	-10.2851
လော့	-10.2852
သူခိုး	-10.2853
ပေ၏။	-10.2855
ပေးပါ့မယ်	-10.2856
ဒေါသ	-10.2868
ပါလိမ့်။	-10.287
လိုအပ်	-10.2876
အချိန်တွင်	-10.2881
▁ကျုပ်သိ	-10.2884
▁အိမ်ပေါ်သို့	-10.2888
ခေါ်ပြီး	-10.2895
▁ကျော်သူ့ကို	-10.2895
▁သွားလာ	-10.2902
ပေါ့ကွာ	-10.2903
ပြောင်းလဲ	-10.2913
အဲ	-10.2914
အစာ	-10.292
ယင်း	-10.2924
▁ငြိမ်	-10.2927
▁မော်တော်ကား	-10.2931
နိုင်ရင်	-10.2932
ရမယ်လို့	-10.2933
နုတ်	-10.294
သော်လဲ	-10.2946
▁အညာ	-10.296
▁ယူလာ	-10.296
▁ဟာသ	-10.2967
▁မရှိသေး	-10.2981
▁ဟုတ်တယ်	-10.2985
▁ကျော်သူ့	-10.2988
ကိစ္စကို	-10.299
▁အပေါင်းအသင်း	-10.2991
လာကြတယ်။	-10.2997
▁ဟုတ်ပြီ	-10.2997
▁ထုံးစံအတိုင်း	-10.3004
္ယ	-10.3006
ဉ်း	-10.3006
မူကား	-10.3007
ရတာလဲ	-10.3023
▁ကပ္ပိယ	-10.3026
ပြန်လေ၏။	-10.3035
ကြရလေ၏။	-10.3038
▁တူးတူးသည်	-10.3048
ပေးသော	-10.3066
ရဦးမယ်	-10.3071
ဒါတော့	-10.3081
▁မနွေကို	-10.3082
ဘဲဗျ။	-10.3085
လာသည့်	-10.309
ကြားထဲ	-10.3099
ကြားလိုက်ရ	-10.3102
ကွဲ့	-10.3103
▁နောက်ကျ	-10.3115
▁ထိုလူ	-10.3117
ငြား	-10.3123
▁ချွင်ချပ်	-10.3123
ကရုဏာ	-10.3123
▁မကျေမနပ်	-10.3123
▁လိုက်လံ	-10.3123
▁ဘားဆင်	-10.3123
▁ကက်ဆက်	-10.3123
သွင်	-10.3123
▁အရှောင်ပေးရ	-10.3124
လူငယ်	-10.3125
အက္ခရာ	-10.3125
▁အလင်းရောင်	-10.3126
စွပ်စွဲ	-10.3126
▁ပထမအကြိမ်	-10.3126
▁လမ်းမှာ	-10.313
တွေဘာတွေ	-10.3131
ဟန်တူ	-10.3132
ပြီလို့	-10.3133
▁တစ်အိမ်လုံး	-10.3136
ဖည်း	-10.3137
▁ရှင်လောင်း	-10.3137
▁ဆယ်တန်း	-10.3138
စဉ်းစားမိ	-10.3146
ဟုတ်ပါတယ်	-10.3149
ဝေါ	-10.3149
▁အထူးသဖြင့်	-10.315
အောက်က	-10.3151
မာက်	-10.3151
▁သဘောပေါက်	-10.3152
အကြာ	-10.3154
▁ခေါ်သွား	-10.3154
▁ရေကူး	-10.3157
ဖဝါး	-10.3159
▁နန်းတော်	-10.316
အနေဖြင့်	-10.3161
▁အခွင့်	-10.3171
▁သိပ်ပြီး	-10.3172
ဆိုတာဟာ	-10.3178
▁အဖေ့	-10.3182
အမျိုးသမီး	-10.319
▁မဟုတ်တာ	-10.3194
မပြောဘဲ	-10.3198
ရဟန်း	-10.3202
ဖုန်း	-10.3214
သုံးစွဲ	-10.3217
▁ကောင်းကျော်	-10.3217
ရေစ	-10.3222
ပါသလဲ	-10.323
▁ပစ္စည်းများကို	-10.3231
ကျယ်ဝန်း	-10.3233
တိုင်းပြည်	-10.3241
▁အိမ်ရှင်မ	-10.3254
▁အားလုံးကို	-10.3257
ဆရာရဲ့။	-10.3258
သဘောကျ	-10.3263
နာမည်ကို	-10.3265
▁မိန်းကလေးတွေ	-10.3274
ဂန	-10.3278
ကလေးသည်	-10.3282
အနားမှာ	-10.3282
▁ခုခံ	-10.3285
ခင်ဗျာ၊	-10.3286
ပါရစေ။	-10.329
ဖြူး	-10.3293
သို့ဖြင့်	-10.33
▁ဂါထာ	-10.3309
လောကမှာ	-10.3309
စက်ရုံ	-10.3309
နေရတယ်။	-10.3317
ကြားမှ	-10.3325
ပူး	-10.333
▁ထိတ်လန့်	-10.3342
မလား။	-10.3359
တစ်ခုမှ	-10.336
မယ့်လူ	-10.3362
နေပါသည်။	-10.3375
▁အပျော်	-10.3377
▁ထိုစဉ်	-10.3381
တပ်သားများ	-10.3386
▁မီးဖိုချောင်	-10.3389
ွံ	-10.3392
အပြစ်	-10.3393
▁တမန်	-10.3405
တတ်အောင်	-10.3413
▁အတန်း	-10.3421
▁မေးကြည့်	-10.3423
▁လူတွေဟာ	-10.3424
အဆ	-10.3431
ပြီဟု	-10.3432
ပါတဲ့။	-10.3435
▁ပညာသင်	-10.3437
▁အိမ်အောက်	-10.3441
ထင်မှတ်	-10.3446
မတက်	-10.3466
ရမယ်ဆိုတာ	-10.3471
မသိအောင်	-10.3493
▁ကားပေါ်	-10.3503
ကြောင်းနှင့်	-10.3508
▁အရင်က	-10.3508
▁ရင်ထဲ	-10.3511
▁သူ့အိမ်	-10.3518
စိမ်	-10.3525
▁သုံးလေး	-10.3529
အနှောင့်အယှက်	-10.354
▁ဒေါ်အိုဇာ	-10.354
▁ကိုအုန်းမြင့်	-10.354
▁ချစ်လှကြည်	-10.354
▁အရောင်းအဝယ်	-10.354
ကြိုးပမ်း	-10.354
▁အပန်းဖြေ	-10.354
▁တစ်ရွာလုံး	-10.354
ပြြီ	-10.354
▁စပါတန်	-10.354
▁အုန်းသီး	-10.354
ခွပွင့်	-10.3544
▁ဗမာပြည်	-10.3545
ခဲ့ဘူး	-10.3546
မိသားစု	-10.3546
▁ဗိုက်	-10.3548
ရှိသည်ကို	-10.3549
ကျကျ	-10.3549
▁နေရာကျ	-10.3549
ဂျစ်	-10.355
အကြီးဆုံး	-10.3554
▁အနုပညာရှင်	-10.3556
ဂေါ	-10.3556
နစ်နာ	-10.3557
▁ကြာရှည်	-10.3559
▁ဂုဏ်ယူ	-10.3561
နေရသော	-10.3563
အဝ	-10.3567
▁တော်တော်ကြာ	-10.357
▁ရေချိုး	-10.3572
▁အဲဒါကြောင့်	-10.3574
ပည်	-10.3575
အမေက	-10.3575
သလဲဆိုတော့	-10.3577
ခြင်းအားဖြင့်	-10.3577
ရင်ထဲမှာ	-10.3579
တယ်ဗျ	-10.3581
▁သူ့ယောကျ်ား	-10.3585
မနေနဲ့	-10.3595
တစ်ပင်	-10.3605
တောက်ပ	-10.3606
ကိုယ့်	-10.3607
▁သဲသဲ၏	-10.3608
နည်းပါး	-10.3608
▁ဦးဆောင်	-10.3609
ပြောတဲ့အတိုင်း	-10.3615
▁မြန်မာ့	-10.3616
ပါမယ်။	-10.3617
လေတော့၏။	-10.3622
ယိုင်	-10.3627
▁ကိုထူး	-10.3628
သွားမယ်	-10.3629
ခပ်သိမ်း	-10.3631
နာတွေ	-10.3634
▁မနေနိုင်	-10.3642
▁သစ်သား	-10.3642
သမိုင်း	-10.365
ိုလ်	-10.3651
နားမလည်	-10.3651
▁ဘယ်သူက	-10.3655
▁ကျန်ရစ်ခဲ့	-10.3656
တန်ဖိုး	-10.3658
ဆွမ်း	-10.3666
အနီးတွင်	-10.3667
▁စစ်သား	-10.3671
မိနစ်	-10.3681
ပေါ့ဗျ။	-10.3684
▁ယခုလို	-10.3691
သူများက	-10.3693
ငယ်လေး	-10.3696
သေးဘူး၊	-10.3699
ချိတ်	-10.3703
မြန်း	-10.3705
၁၁	-10.3706
▁သူမရဲ့	-10.3708
ရောပ	-10.3725
တယောက်	-10.3726
သလဲဆိုတာ	-10.3736
တစ်ကြောင်း	-10.3738
အလောင်း	-10.374
▁တကယ်လို့	-10.3748
နေပါစေ	-10.3753
နင့်	-10.3755
ကျို	-10.3755
▁သင်ယူ	-10.3758
ဘေးမှ	-10.377
▁ယဉ်ကျေး	-10.3771
တဲ့လူဟာ	-10.3775
လောက်ပဲ	-10.3781
ဒီလို	-10.3781
ကောင်းတယ်	-10.3786
▁လူနှစ်ယောက်	-10.3796
▁စသည့်	-10.3803
▁လက်ရှိ	-10.3819
ရာ၏။	-10.382
ခဲ့ရတဲ့	-10.3821
ပြောတယ်။	-10.3826
အားလုံးဟာ	-10.383
▁သည်း	-10.383
ကျောင်းတိုက်	-10.3847
▁ကောက်ယူ	-10.385
▁ဘယ်နေရာ	-10.3862
ုဂ	-10.3864
ဆထ	-10.388
ှိုက်	-10.3887
ကြည့်ရင်	-10.3899
ရောက်မှ	-10.3904
ပါတယ်ြ	-10.393
နေပြီ၊	-10.3932
ပေါ်တက်	-10.3942
▁လည်ပင်း	-10.3958
ပါတယ်ရှင်	-10.3962
မဆုံး	-10.3964
▁နှင်း	-10.3968
မမြင်ဘူး	-10.3971
ဘေးမှာ	-10.3973
▁အလွန်တရာမှ	-10.3973
ဗဟုသုတ	-10.3974
ယောက္ခမ	-10.3974
သချင်္ာ	-10.3974
▁ဇပ်ဆီး	-10.3974
▁အသေအချာ	-10.3974
▁ဦးပန်းမွှေး	-10.3974
ဂဏန်း	-10.3974
▁ကိုသန်းနိုင်	-10.3974
▁တိုက်အိမ်ကြီး	-10.3975
▁ဖြည်း	-10.3975
▁စမ်းသပ်	-10.3975
▁ဖိနပ်	-10.3975
လြို့	-10.3976
▁ဖယောင်းတိုင်	-10.3976
အမှတ်အသား	-10.3978
▁ယုန်	-10.3979
မြှင့်	-10.3979
▁ဒီကနေ့	-10.398
တပ်မတော်	-10.398
အစွမ်း	-10.3981
▁သီတင်းသုံး	-10.3984
▁ခြေလှမ်း	-10.3986
▁တနဂင်္နွေနေ့	-10.3988
▁စုပေါင်း	-10.3989
မောင်ရဲ့။	-10.3989
ငြိမ်သက်	-10.3989
▁တစ်ဘက်ခန်း	-10.399
▁အမှန်တရား	-10.3993
▁ဝန်ကြီး	-10.3993
▁စိတ်မချ	-10.3997
ယောင်ဆောင်	-10.3998
▁သည်နေ့	-10.4002
ဝင်ခွင့်	-10.4002
တယ်နော်	-10.4008
ကိုသိန်းမောင်ရဲ့	-10.4012
ကိုကျော်သူ	-10.4015
▁ရှင်ပြု	-10.4016
▁တစ်နေ့သ	-10.4029
ခေါ်၍	-10.4029
▁္တာ့	-10.4032
အမှန်	-10.4041
ကျူး	-10.4046
ရိပ်သာ	-10.4051
▁အသက်ကြီး	-10.4051
▁ငပလီကို	-10.4052
ရပါင်	-10.4059
ဖတ်ရှု	-10.4068
▁နောင်တော်	-10.4079
စရာမရှိ	-10.4082
▁သူ့သမီး	-10.4082
▁သတိပေး	-10.4088
▁ကလေးတစ်ယောက်	-10.4092
▁ချစ်ခြင်း	-10.4093
တစ်ပွင့်	-10.4097
သွားကြတယ်။	-10.4102
ကျန်ခဲ့	-10.4116
ဖေဖေ	-10.4116
ပါကလား။	-10.4119
ခဲ့ရာ	-10.412
လှည်း	-10.4125
ဂျာ	-10.4128
ပါသလား	-10.4129
စေလို	-10.413
ထိန်းသိမ်း	-10.4131
ထံတွင်	-10.4134
ကူညီ	-10.414
အင်အား	-10.414
မယ်ဆိုတဲ့	-10.4142
မှုကြောင့်	-10.4156
ပါနဲ့။	-10.4159
▁ဘာဖြစ်လို့လဲ	-10.4161
အပေါင်းတို့	-10.4167
▁အားကျ	-10.4169
▁ဟသင်္ာတ	-10.417
နေပြီဖြစ်	-10.4174
▁ဗာ	-10.4174
▁ပြည်သူ	-10.4184
ဝှက်ထား	-10.4184
မရှိပေ။	-10.419
▁ဆရာမတွေ	-10.419
▁တိုက်ကြီး	-10.4192
သန့်ရှင်း	-10.4198
▁ဟိုး	-10.4206
▁တစ်ခါမှ	-10.4215
▁မအိပ်	-10.4217
ဘူးခင်ဗျ။	-10.4224
ဖူးသည်။	-10.4226
▁ဖော်ပြထား	-10.4244
ဒိုင်း	-10.4245
ကြစို့	-10.4245
▁သမီးလေး	-10.4262
▁ငယ်ငယ်က	-10.4264
မှန်သမျှ	-10.4271
နွဲ့	-10.4271
ဆရာမ	-10.4273
မယ်ထင်	-10.4274
▁ဟုပြော	-10.4282
တွင်မူ	-10.4291
ဖြစ်ပျက်	-10.4307
▁နေဝင်	-10.4311
ကောင်းတယ်။	-10.4316
မမာ	-10.4323
▁ကျွန်ုပ်တို့	-10.4323
ပတ်လည်	-10.4326
တွေ့ရှိ	-10.433
▁ခုတင်က	-10.4346
သားသမီး	-10.4349
▁၊ပ	-10.4366
ညွှန်	-10.4369
▁လက်ရေး	-10.4371
▁ကွန်ပျူ	-10.4372
ခဲ့ရသော	-10.4373
▁ိန	-10.4374
▁သည်ကနေ့	-10.4387
▁အမေရိကန်	-10.4399
ကောင်မလေး	-10.44
တွေ့ကြ	-10.4407
ပါသေးတယ်	-10.4413
▁ဝင်သွား	-10.4418
တဲ့လက္ခဏာ	-10.4422
ပံ့သကူ	-10.4428
င်္ုံမမာနဒ	-10.4429
ဖွံ့ဖြိုး	-10.4429
ဗလငါးတန်	-10.4429
▁မုက္ကဒိ	-10.4429
ချဉ်းကပ်	-10.4429
မောင်အုန်းဘေ	-10.4429
▁ကိုစံဝင်း	-10.4429
▁ခေါင်းညိတ်	-10.4429
▁ပုဂံ	-10.4429
▁အီဂျစ်	-10.4429
▁ဆပါးတ	-10.4429
▁ဦးဘိုးတုပ်	-10.4429
▁စနစ်တကျ	-10.4429
▁ရှာရွန်	-10.4429
အစိတ်အပိုင်း	-10.4429
▁တတ်နိုင်သမျှ	-10.4429
▁သားအဖနှစ်ယောက်	-10.443
သပ်သပ်	-10.4431
▁ကြိုတင်	-10.4431
လူတန်းစား	-10.4432
▁တစ်ခါတလေ	-10.4432
▁အရာဝတ္ထု	-10.4432
▁အစ်ကိုလတ်	-10.4434
▁အဘယ်ကြောင့်	-10.4434
နပုတ	-10.4435
ျက်နှာချင်းဆိုင်	-10.4435
▁သက်ဆိုင်ရာ	-10.4436
▁ဒကာမကြီး	-10.4436
▁အေသင်	-10.4437
▁လှည့်လည်	-10.4438
▁စုစည်း	-10.4438
ကျေးရွာ	-10.4439
▁စာတစ်စောင်	-10.4441
▁ကဗျာတွေ	-10.4441
ထိုက်တန်	-10.4441
မီးဖို	-10.4441
▁သတိပြု	-10.4447
ရာဝတီ	-10.4447
▁မိုးလင်း	-10.445
▁ပိုဆိုး	-10.4452
▁ဖား	-10.4455
ဖြစ်လေသည်။	-10.4456
ဒါန	-10.4467
▁ဖြစ်ပေါ်လာ	-10.4467
▁လက်မောင်း	-10.4471
▁လူမိုက်	-10.4474
ပျံ့	-10.4479
အရာကို	-10.448
ပွဲတော်	-10.4481
▁လယ်သမား	-10.4485
ဆိမ့်	-10.4487
▁အဘယ်	-10.4487
▁ကမ္ဘာ့	-10.4488
▁အပို	-10.4492
လျက်ရှိ၏။	-10.4496
လုပ်ချင်တာ	-10.4498
ပြောတတ်	-10.4503
ဟောဟို	-10.4507
ဆွေး	-10.4512
▁တရားခံ	-10.4518
မတ်မတ်	-10.452
▁သူ့အတွက်	-10.4522
လူတစ်ယောက်	-10.4524
▁မျက်နှာထား	-10.4525
▁မှတ်ထား	-10.4542
နှစ်ချောင်း	-10.4543
များကြောင့်	-10.4545
▁လုပ်တတ်	-10.4546
ပေါ့ကွာ။	-10.4548
▁သတိထားမိ	-10.455
▁အမျက်	-10.455
တိုင်အောင်	-10.4552
ဆော့	-10.4563
▁စာရွက်ကို	-10.4565
ညှ	-10.4569
ယန	-10.4572
▁မလွယ်	-10.4579
အနီးရှိ	-10.458
▁အိမ်ရောက်	-10.4582
ဦးဘိုး	-10.4583
▁ဘားအံမြို့	-10.4584
▁ခံစားရ	-10.4585
▁ကိုယ်ပိုင်	-10.4585
▁ကန်တော့	-10.459
▁အကြံပေး	-10.4594
▁ရယ်စရာ	-10.4595
▁ရှိလေ၏။	-10.4601
နေရတဲ့	-10.4602
နှုတ်ခမ်း	-10.4605
စင်ကြယ်	-10.4606
လာမယ့်	-10.4608
မနွေ	-10.4627
စာမေးပွဲ	-10.4629
ဘီလူး	-10.4629
ရုံသာ	-10.463
ယူဆ	-10.4636
▁မိုချယ်	-10.4636
▁မဖြစ်ဘူး	-10.4651
တစ်လက်	-10.4652
စစ်ဆေး	-10.4653
ပြင်ဆင်	-10.4658
မှန်မှန်	-10.466
ရဲ့လား။	-10.4662
ပေတော့။	-10.4666
အားကိုး	-10.4671
မ္မာသည်	-10.4678
▁အိုက်	-10.4679
▁မမရယ်	-10.4682
နေသလား	-10.4693
▁ထွက်လာခဲ့	-10.4706
မပေးဘဲ	-10.4707
▁ထုတ်ယူ	-10.4721
လိုက်မိသည်။	-10.4736
ေးဝယ်	-10.4739
▁ကျောက်ဖြူမြို့	-10.474
လိုက်ရတယ်။	-10.4742
▁ဖိုးသူတော်သည်	-10.4745
လျက်ရှိနေ	-10.4753
▁ပန်းတွေ	-10.4757
ပတိ	-10.476
မှတ်သား	-10.4769
နေပါပြီ။	-10.4779
ကျယ်ကျယ်	-10.4786
ကျွန်မတို့	-10.4786
▁မာန	-10.479
▁ဖြစ်နေသည်။	-10.4792
▁ခုမှ	-10.4798
▁အမေ့ကို	-10.4799
ကြပါသည်။	-10.4804
ဝိဇ	-10.4805
▁ထိုနေ့	-10.4808
ခြေထောက်	-10.4809
တစ်ဖွဲ့	-10.4813
နေဟန်	-10.4817
တစ်ဖန်	-10.4823
လွ	-10.4826
တယ်လေ	-10.4832
တတ်လေသည်။	-10.4832
ပီလား	-10.484
တော်မူပါ	-10.4842
▁ပိန်	-10.4846
▁ကျောင်းသားများ	-10.4847
သတည်း။	-10.4853
ဘုရားသခင်	-10.4854
ကြရာသည်။	-10.4875
▁မမှန်	-10.4878
▁ပရိသတ်က	-10.4889
၊ကိ	-10.4889
သူများအတွက်	-10.489
▁ဖျာ	-10.4895
ဝန်းကျင်	-10.4905
ညွန့်	-10.4905
နိဗ္ဗာန်	-10.4905
န၏ုရမာတိ	-10.4905
▁နှာခေါင်း	-10.4905
▁မတော်တဆ	-10.4905
▁တိတ်တဆိတ်	-10.4905
▁မောင်ထွန်းကျော်	-10.4905
▁လီယိုနီးဒပ်စ်	-10.4905
▁ဟံသာဝတီ	-10.4905
▁မောင်ခိုင်မာ	-10.4905
▁မောင်မောက်	-10.4905
▁သင်ခန်းစာ	-10.4905
ကရာဇ်ကြီး	-10.4905
▁ကိုညီအောင်	-10.4905
▁တိမ်ပျံ	-10.4905
ရပ်တန့်	-10.4905
▁ထမ်းဆောင်	-10.4906
▁ဖုဝရေ	-10.4906
▁မိမိကိုယ်ကို	-10.4906
▁ပြောင်းရွှေ့	-10.4907
▁စိတ်ကူးယဉ်	-10.4907
ချာချာ	-10.4907
▁အသေခံ	-10.4908
▁လာဘ်	-10.4908
မှာစိုးလို့	-10.4908
▁သိသာ	-10.4908
ဟစ်အော်	-10.491
ရယ်သံများ	-10.4911
▁တစ္ဆေ	-10.4911
▁မိတ်ကပ်	-10.4911
▁နေ့လယ်	-10.4912
▁ကျွဲ	-10.4912
▁ရှောက်	-10.4915
ကြွယ်ဝ	-10.4917
မည်နည်း။	-10.4917
▁စီးဆင်း	-10.4919
နီးပါး	-10.4921
ဝတီ	-10.4922
▁မည်သို့မျှ	-10.4923
▁အနီးအနား	-10.4924
အရှင်	-10.4924
▁တစ်နေ့သော်	-10.4925
တဲ့အလုပ်	-10.4925
▁သည်အကောင်	-10.4928
အချို့ကို	-10.4929
▁ငရဲ	-10.4933
▁ဒါကြောင့်မို့	-10.4933
▁ကိုးဘီးကလေး	-10.4934
▁ကြိမ်း	-10.4934
▁ဆက်စပ်	-10.4935
▁မကြားရ	-10.4941
နှင့်ပတ်သက်၍	-10.4942
ပါတယ်ခင်ဗျာ။	-10.4942
လာလျှင်	-10.4943
▁ဘာသာစကား	-10.4944
ဗု	-10.4946
ျူ	-10.4947
▁သားရေ	-10.4949
▁လက်မခံ	-10.4952
မြူ	-10.4957
▁အဏ္	-10.4957
▁နောက်ပြီးတော့	-10.4957
▁ရှိခိုး	-10.4957
▁မမလှ	-10.4959
တပ်ဆင်	-10.496
မရှိသော	-10.4962
သည်ဖြစ်ရာ	-10.4964
စားပွဲ	-10.4969
နေကြပြီ။	-10.4974
သျှ	-10.4977
ဖွင့်ပြီး	-10.4983
ဆိုတာကတော့	-10.4991
သတ်ဖြတ်	-10.4992
ကြည့်ရာ	-10.4993
ရှိပါသည်။	-10.4997
▁အတော်ပင်	-10.5008
ကိုး။	-10.5008
ပါဘူးခင်ဗျာ	-10.501
နည်းတူ	-10.5014
ထားရာ	-10.5014
အိုကြီး	-10.5015
▁မရနိုင်	-10.502
မရှိပါဘူး။	-10.5027
နိုင်တော့ဘူး	-10.5033
▁အရှက်	-10.5037
လာခဲ့တယ်။	-10.5037
ဆီမှ	-10.5039
နယ်မှာ	-10.5046
နေရာသို့	-10.5056
ကိုင်ပြီး	-10.5056
သမားများ	-10.5058
တတ်၏။	-10.5068
နိုင်မလဲ	-10.5071
▁မပြောနိုင်	-10.5073
▁သတိထား	-10.5087
ထုံ	-10.5089
နှစ်အရွယ်	-10.5099
▁စာလုံး	-10.51
ကိုကြည့်ကာ	-10.5103
ဖစ်စေ	-10.5114
▁ဟောသည်	-10.5125
လိုက်မယ်	-10.5134
▁ကြမ်းပေါ်	-10.5136
▁ဖြစ်နေတယ်။	-10.5142
ရမှာပဲ။	-10.5144
ဂု	-10.5147
▁ငေးကြည့်	-10.5149
အဘ	-10.5151
နိုင်ငံသား	-10.5151
ပပ	-10.5154
▁ကိုယ်တို့	-10.516
မုန့်	-10.5162
မရှိတော့ဘူး	-10.517
ရောက်ရှိလာ	-10.5171
တန်ခိုး	-10.5175
▁စဉ်းစားနေ	-10.5178
ပုလိပ်	-10.5179
ကိုင်လျက်	-10.518
မိလေ၏။	-10.5182
ဆိုတာမျိုး	-10.5184
ဝမ်းသာ	-10.5193
ခေါင်းစဉ်	-10.5201
▁စာရေးသူ	-10.5204
ဖွဲ့စည်း	-10.5211
▁တောင်ဘက်	-10.5219
လျက်ရှိသည်	-10.5221
လှိုင်း	-10.5224
မရ။	-10.5225
▁မေးသည်။	-10.5236
ဦးမယ်။	-10.5237
▁စီးကရက်	-10.5249
ညိ	-10.5259
▁အိမ်တွင်း	-10.5267
မေမေ	-10.5286
▁လမ်းဘေး	-10.5287
နေတယ်လို့	-10.5293
တစ်ရက်	-10.5295
▁ပေါ်ပေါက်လာ	-10.5316
▁လောကကြီး	-10.5335
ခေါ်တဲ့	-10.5338
အချက်အလက်	-10.534
တိုက်ပွဲ	-10.5346
▁စိတ်ထား	-10.5349
▁မောဟ	-10.5355
▁ဦးပဉ္စင်း	-10.5364
ဆိုသည်ကို	-10.537
▁ပြန်လာခဲ့	-10.5374
လာခဲ့ပါ	-10.538
တာထက်	-10.5381
တွေကြောင့်	-10.5382
▁ဒါတွေကို	-10.5384
ဘုန်းတော်ကြီးသည်	-10.5397
နွေ	-10.5398
ထွင်	-10.54
▁ပခုက္ကူ	-10.5404
▁မိဘများ	-10.5405
▁ဆော့ဖ်ဝဲ	-10.5405
▁တယ်လီဖုန်း	-10.5405
▁လျှို့ဝှက်	-10.5405
▁အတွေ့အကြုံ	-10.5405
ဂြင်္	-10.5405
အဓိပ္ပါယ်	-10.5405
▁စန္ဒရား	-10.5405
▁စိုင်းထီးဆိုင်	-10.5405
▁မောင်သိန်းဟန်	-10.5405
▁တိတိကျကျ	-10.5405
▁ရှေးဦးစွာ	-10.5405
▁နှိမ်နင်း	-10.5405
▁အတော်အတန်	-10.5405
▁ငြိမ်းရိပ်သာ	-10.5405
▁အကြိမ်ကြိမ်	-10.5405
လုံ့လ	-10.5405
▁ကိုမျိုးခင်	-10.5405
ဖြန်း	-10.5405
▁အဘွားအို	-10.5405
▁မစ္စတာ	-10.5405
▁အတန်ငယ်	-10.5405
ဖွင့်လှစ်	-10.5405
▁ဝရန်တာ	-10.5405
အယူအဆ	-10.5406
ခရိုင်	-10.5406
▁ခိုင်မာ	-10.5406
▁မသိမသာ	-10.5406
▁ဘယ်သူ့ကိုမှ	-10.5406
မည်းမည်း	-10.5408
ပည့်စုံ	-10.5408
ကြသူများ	-10.5409
▁အခန်းတွင်းသို့	-10.5412
ဆောင့်	-10.5412
ပျံသန်း	-10.5412
▁မလုပ်နိုင်	-10.5413
▁ဖြတ်သန်း	-10.5414
▁ဟိုညက	-10.5414
▁ခွင့်လွှတ်	-10.5415
▁ထိုင်ရာမှ	-10.5415
ဂျက်	-10.5416
▁ခင်လွမ်းဝေ	-10.5419
▁ထွက်ပေါ်လာ	-10.5419
▁တည်ထောင်	-10.542
▁မည်သူမျှ	-10.5421
▁သေဒဏ်	-10.5423
တဲ့အခါကျတော့	-10.5423
▁ဒါမှ	-10.5425
▁မယ်ခ	-10.5425
ကြမ်းတမ်း	-10.543
▁အရင်တုန်းက	-10.5431
▁သံတွဲ	-10.5432
▁သူ့ဖခင်	-10.5434
ထက်မြက်	-10.5437
▁အရှည်	-10.544
▁မျက်နှာပျက်	-10.5441
▁ပဝါ	-10.5444
ပွဲတွေ	-10.5451
▁အထွတ်	-10.5451
▁ဆူး	-10.5454
▁လက်ဝါး	-10.5454
ဝိုက်	-10.5456
▁မိုးရွာ	-10.5456
ဗူး	-10.5462
မိစံ	-10.5462
▁မခံချင်	-10.5465
ပေါ့လေ	-10.5465
အဖော်	-10.5466
▁လိုလား	-10.5466
▁အချိန်ကုန်	-10.547
ကြည့်လိုက်ရာ	-10.5474
ဟူး	-10.5482
ုလဒ	-10.5482
ထွင်း	-10.5483
ကြသောအခါ	-10.5484
▁ကျောင်းဆရာ	-10.5491
▁အိမ်သို့ပြန်	-10.5517
လိုက်ဦးမယ်	-10.5519
တို့မိသားစု	-10.552
မျက်နှာထားနှင့်	-10.552
ပါမည်။	-10.5522
▁ကပ္ပိယကြီး	-10.5528
စဖွယ်	-10.553
▁ပါရှိ	-10.5537
ကြရတာ	-10.5542
▁အလုပ်တိုက်	-10.555
မပါဘဲ	-10.555
▁ဟိုတယ်	-10.5553
▁ကိုယ်လုံး	-10.5554
▁အာရပ်	-10.5557
ဘယ်ဘက်	-10.5564
▁ဖောက်သည်	-10.5567
▁သိရအောင်	-10.5567
▁ကိုရင်ကြီး	-10.5569
▁ဘယ်သူလဲ	-10.5577
ပို့ပေး	-10.5589
▁လိုက်ပါလာ	-10.5594
ဘာလုပ်	-10.5596
▁လူတို့၏	-10.5601
ခြင်းမရှိ	-10.561
ဇရပ်	-10.562
▁ရှေ့နေ	-10.562
ပြီလား။	-10.5623
▁အောက်ပါ	-10.5624
▁မလွဲ	-10.5625
▁အနောက်ဘက်	-10.5626
တော့ချေ။	-10.5636
▁ပြောလေ၏။	-10.5652
▁ပိုကောင်း	-10.5662
နှစ်ကောင်	-10.5666
ဖြစ်ပေသည်။	-10.5675
အစီအစဉ်	-10.5694
ကျွန်တော့်မိန်းမ	-10.5698
လွတ်လပ်	-10.5701
ယောက်ျား	-10.5703
သူတစ်ဦး	-10.5708
ဂြိုဟ်	-10.5709
သရုပ်ဆောင်	-10.5711
စီမံ	-10.5712
အသုံးပြု	-10.5714
▁တပည့်တော်တို့	-10.5714
▁ရွာတစ်ရွာ	-10.572
လေယာဉ်	-10.5724
▁ဒကာကြီး	-10.5732
ာနာ	-10.5733
ဆွဲပြီး	-10.5741
▁ကလေးငယ်	-10.5749
တောင်းပန်	-10.575
▁မောင်ကြီး	-10.5751
▁ဘားအံ	-10.5756
တစ်ပွဲ	-10.5759
မပေးနိုင်	-10.5763
လေကြောင်း	-10.5777
နေမိလေသည်။	-10.5777
▁အသင်	-10.5781
▁ဒီအခါ	-10.5787
လက်နက်	-10.5788
▁ပြောသဖြင့်	-10.5794
ဇ္	-10.5798
▁သီချင်းတွေ	-10.5806
▁စိတ်ဝင်စားစရာ	-10.5814
▁များမကြာမီ	-10.5818
အပိုင်	-10.5821
တခါ	-10.5834
▁ဆိုသည်။	-10.5838
ပြီဆိုရင်	-10.5845
ကြည်လင်	-10.5853
ပဲလား	-10.5865
▁အံ့သြစရာ	-10.5884
နှင့်ပတ်သက်	-10.5891
ရန်ကုန်	-10.5895
လက်ခုပ်	-10.5913
ထင်တာ	-10.5924
▁ကြားနေရ	-10.5929
မနီးမဝေး	-10.5931
▁တိုင်းသူပြည်သား	-10.5931
▁ရှင်သိဒ္ဓတ်	-10.5931
▁အနိစ္စ	-10.5931
▁အောလစ်ဗ်	-10.5931
▁ဝတ္တရား	-10.5931
ကြီပွါး	-10.5931
ရွှံ့	-10.5931
▁သံသယ	-10.5931
▁အလှအပ	-10.5932
▁သူရဲကောင်း	-10.5932
ချီးမြှင့်	-10.5932
▁ပကတိ	-10.5932
မုန်တိုင်း	-10.5932
အနှံ့	-10.5932
▁စိတ်မဝင်စား	-10.5932
▁ဦးဘိုးမင်း	-10.5933
▁ထိခိုက်	-10.5934
တွေအများကြီး	-10.5934
▁ခင်ခင်က	-10.5935
▁ဦးနှောက်	-10.5935
▁ဖမ်းဆီး	-10.5937
▁လွတ်မြောက်	-10.594
တံငါ	-10.5942
ပေးလိုက်သည်။	-10.5945
▁ကျေးဇူးရှင်	-10.5945
အရေအတွက်	-10.5945
မွေးမြူ	-10.5946
ဟိန်း	-10.595
▁တန်းစီ	-10.5951
ဇယား	-10.5952
▁ဆေးဝါး	-10.5954
ပေလိမ့်မည်။	-10.5954
▁လူစု	-10.596
ဟန်တူသည်။	-10.5962
▁လွန်စွာ	-10.5963
တုန်လှုပ်	-10.5966
▁ဆွမ်းခံ	-10.5968
▁ရပ်ရွာ	-10.5968
ခြယ်	-10.5969
ထက်သန်	-10.5969
ပါသေးသည်။	-10.5969
▁တဘက်	-10.5973
ရှပ်	-10.5973
အုပ်စိုး	-10.5974
▁ဒီနေရာမှာ	-10.5979
ညွှန်ပြ	-10.5991
မယ့်သူ	-10.5991
▁ထိုညက	-10.5993
▁ကျဆုံး	-10.5994
ဖြစ်သည်ဟု	-10.5996
သော်လည်းကောင်း	-10.5997
▁ကျော်ကြား	-10.6
▁မောင်မင်း	-10.6
ဝါဝါ	-10.6002
▁တက်ရောက်	-10.6003
▁ဒါမျိုး	-10.6003
ပါနဲ့၊	-10.6006
▁ရေအိုး	-10.601
ဆယ်ပါး	-10.6012
▁ပတ်သက်လို့	-10.6016
▁ကုတ်	-10.6017
ငါးပိ	-10.6026
▁နှစ်ရက်	-10.6028
ခဲ့ပေ။	-10.6031
ကြီးဒေါ်	-10.6036
ပုဝါ	-10.6038
ရပေမည်။	-10.6039
▁ခွင့်ပြု	-10.6053
▁မြောက်ဘက်	-10.6055
လေ့ရှိသည်။	-10.6058
▁အဲဒီလူ	-10.6061
ပါရစေနဲ့	-10.6067
တယ်ဆိုတော့	-10.6068
နှစ်ချက်	-10.607
ပြည်နယ်	-10.607
▁အများကြီးရှိ	-10.6077
▁ကြားရသည်။	-10.61
▁တစ်နာရီ	-10.61
ာန်း	-10.6102
ဒါယ	-10.6103
▁အရှောင်	-10.6109
မောင်ရယ်။	-10.6114
▁အောင်မျိုး	-10.6115
ဘာဝ	-10.6117
▁ဆရာဝန်ကြီး	-10.6117
▁ခံစားမှု	-10.6121
သိုက်	-10.6126
ပြောစမ်းပါဦး	-10.6143
▁မတွေး	-10.6158
ဖေ	-10.616
▁သူ့မိတ်ဆွေ	-10.6167
လိုက်ကြသည်။	-10.6168
▁ဟောဒီမှာ	-10.6171
ရပါ၏။	-10.6173
တာလဲ။	-10.6186
ကျိတ်	-10.6187
တကွ	-10.6188
နမ်း	-10.619
နားကပ်	-10.6192
▁မွေးဖွား	-10.6195
▁သရုပ်	-10.6201
▁အခက်	-10.6215
ကောင်းပါပြီ	-10.6218
ရှိပါတယ်	-10.6224
▁တနေ့	-10.6228
ပုသ်	-10.6232
ုင	-10.6243
ဖန်များ	-10.625
▁အခြားမဟုတ်	-10.6253
သတ္တဝါ	-10.627
သလဲလို့	-10.6275
မြွေ	-10.6279
▁ကြည်နူး	-10.6279
နံနက်	-10.6285
၊ပံး	-10.6288
▁အစွဲ	-10.6294
ပရိသတ်	-10.6296
ကျွမ်းကျင်	-10.6299
ဆက်သွယ်	-10.6305
ဒီနေ့	-10.6308
ညီမလေး	-10.6308
ဂီတ	-10.6311
▁အကျယ်	-10.6316
▁လေးငါး	-10.6323
စိတ်ဓာတ်	-10.6324
▁ကိုသိန်းဆွေ	-10.6326
နှစ်ပေါင်း	-10.6333
ခဲ့ပြီ။	-10.634
ခဲ့လေ၏။	-10.6342
▁တွေ့လိုက်ရ	-10.6356
ပြောစရာရှိ	-10.6356
▁မီးအိမ်	-10.6356
သေဆုံး	-10.6357
ရုပ်ရှင်	-10.6358
ခေါင်းဆောင်	-10.6367
▁သမီးကလေး	-10.6389
လှုပ်ရှားနေ	-10.6391
▁ထိုနေရာ	-10.6394
ဖစ်ချင်	-10.6396
▁စူ	-10.6399
ဖွင့်ပေး	-10.64
ရယ်မော	-10.6404
တစ်စည်း	-10.6415
ိဂန	-10.6417
မလှုပ်	-10.6425
▁မိန်းမတွေ	-10.6447
▁ကျရောက်	-10.6454
▁ဒင်ကြီး	-10.6454
သည်လိုဗျ	-10.6456
သို့မဟုတ်	-10.6458
မိခင်	-10.6468
ဘုန်းတော်ကြီ	-10.6469
အလုပ်လုပ်	-10.6475
မြို	-10.6484
ရွရွ	-10.6487
▁ကာမဏိ	-10.6487
▁ဦးဖိုးဆိတ်	-10.6487
▁ဦးအောင်ဘော်	-10.6487
▁ဟစ်ချ်ကော့ခ်	-10.6487
ာဂုါဂ	-10.6487
သမ္မတ	-10.6487
▁ကမ္မ	-10.6487
▁ဝေါဟာရ	-10.6487
▁ဘြယ်	-10.6487
တော်လှန်ရေး	-10.6487
▁တစ်ကိုယ်လုံး	-10.6487
သင့်တင့်	-10.6487
▁ပိုစတာ	-10.6487
▁ထစေတ	-10.6487
▁အနည်းဆုံး	-10.6488
▁ဖိုးညို	-10.6488
အစဉ်အလာ	-10.6488
ဆည်းဆာ	-10.6489
▁ဝိနည်း	-10.649
▁ရဲရင့်	-10.649
နှင့်အညီ	-10.649
▁အိမ်တစ်အိမ်	-10.6491
▁ပြေးလွှား	-10.6491
သနည်း။	-10.6491
▁ကိုင်တွယ်	-10.6491
▁အောက်ပါအတိုင်း	-10.6491
▁နိုင်ငံတကာ	-10.6492
▁သိမ်းပိုက်	-10.6493
▁နာကျင်	-10.6493
▁ဇွတ်	-10.6494
▁တိုက်ကြက်	-10.6496
▁သတိမရ	-10.6497
လှော်	-10.6498
▁ရိုက်ကူး	-10.6499
▁အရက်သောက်	-10.65
▁အဘွားကြီး	-10.6501
▁မြား	-10.6503
တည်းဟူသော	-10.6504
စျေး	-10.6505
ေးနှုန်း	-10.6507
▁ငြါ့	-10.6508
ပါဘူးြ	-10.6514
▁အိမ်ထောင်ပြု	-10.6514
▁ပြည်မြို့	-10.6523
▁နောက်တစ်ခါ	-10.6524
▁အလွမ်း	-10.6539
ထင်တဲ့အတိုင်း	-10.6546
▁မနွေတို့	-10.6551
ဟုတ်လား	-10.6557
ပေးခြင်း	-10.6557
▁ဝတ်စား	-10.6561
▁ရေခဲ	-10.657
▁ကျော်သူ၏	-10.6578
▁ဆရာတော်အား	-10.6586
တ္ထ	-10.6586
နထ	-10.6587
▁ကမ္ဘာကြီး	-10.6587
ဝိုင်	-10.6589
လုပ်နေတာ	-10.6601
ခံလိုက်ရ	-10.6612
▁အထက်ပါ	-10.6618
▁စတု	-10.662
စရာအကြောင်း	-10.6632
ကြည့်လျက်	-10.6639
ပိန်း	-10.6661
▁သိထား	-10.6672
အကြပ်	-10.6672
▁နောက်နှစ်	-10.6672
▁လက်ဆွဲ	-10.6678
▁စာအုပ်တွေ	-10.6686
လေတော့သတည်း	-10.6704
လျက်ရှိလေ၏။	-10.672
မ္မာတို့	-10.6722
လှလှ	-10.6738
▁တောင်းဆို	-10.6743
▁တယ်ကြီး	-10.6747
▁လုပ်စရာ	-10.675
▁ဟောပြော	-10.6759
▁ငယ်စဉ်က	-10.6764
▁ဒီနိုင်ငံ	-10.6767
▁ဖြစ်နေတာ	-10.6768
မည်မဟုတ်	-10.6769
တယ်ဗျာ။	-10.6769
ကျောင်းဝင်း	-10.6772
▁ဒီဘက်	-10.6773
▁အာဟာရ	-10.6775
တွေ့နေရ	-10.6787
ရူပ	-10.6788
ဝီ	-10.6798
ထူးထူး	-10.68
ပေးပို့	-10.6818
▁တင်ထား	-10.6823
▁လမ်းမတော်	-10.6845
ပါတယ်လို့	-10.6846
▁နေပူ	-10.6858
ကြတာပဲ။	-10.6876
မျှော်လင့်	-10.6877
ဘယ့်နှယ်	-10.6883
အတွင်းတွင်	-10.6886
▁ဒါပဲ	-10.6889
ခဲ့ကြောင်း	-10.6896
ဘယ်လောက်	-10.6902
ထွကခွါ	-10.6916
လွမ်း	-10.6918
ဆွေးနွေး	-10.6921
▁ဝယ်ပေး	-10.6922
ဂွ	-10.6923
ရတနာ	-10.6927
လက်ရာ	-10.6927
လားဗျာ	-10.6944
အိပ်မက်	-10.6953
လဲဟင်	-10.6968
▁သူစိမ်း	-10.6977
ထွက်ပြေး	-10.698
ပေါ့ဗျ	-10.6993
နေရလေသည်။	-10.6994
အလှကို	-10.6995
ကျခံ	-10.7
ိပ်	-10.7
▁ပြန်ပြောလိုက်	-10.7012
▁တောင်ကြား	-10.7017
ရှိတယ်ဆိုတာ	-10.7021
ခြေရင်း	-10.7025
▁တပ်သား	-10.7027
လက်အောက်	-10.7054
အမိန့်ရှိ	-10.7057
မောင်စံရှားနှင့်	-10.7063
▁သီတင်း	-10.7063
ပရိယတ္တိ	-10.7072
▁ရဟူဒီ	-10.7075
မသကင်္ာ	-10.7075
▁ကမန်းကတန်း	-10.7075
▁ခပ်လှမ်းလှမ်း	-10.7075
▁ဆု၏ဝါရေ	-10.7075
▁ယိုးဟန်	-10.7075
အထိမ်းအမှတ်	-10.7075
အမြောက်အမြား	-10.7075
▁ကိုစိန်အေး	-10.7075
▁ဘိုးသာကြွယ်	-10.7075
▁မျောက်ကြီး	-10.7075
ကြောက်မက်ဖွယ်	-10.7075
လဲလျောင်း	-10.7075
▁ကိုချစ်ညို	-10.7075
▁ကြက်သွန်	-10.7075
▁မကြာမကြာ	-10.7075
▁ရွာသူရွာသား	-10.7075
▁အစ်ကိုသန်းအောင်	-10.7075
ထောက်ပံ့	-10.7075
ဗ္ဗ	-10.7075
▁အသုံးအဆောင်	-10.7075
▁ဇင်ရိုင်း	-10.7075
▁ဂျာမန်	-10.7075
▁ကိုသန်းအောင်	-10.7075
မီးကျီး	-10.7076
▁ဝက်ဝံ	-10.7076
▁နော်လူး	-10.7076
▁ရှည်လျား	-10.7076
▁ရှပ်အကျင်္ီ	-10.7076
▁ကျင်လည်	-10.7076
▁သာဓက	-10.7076
▁ဆူညံ	-10.7076
▁စွမ်းရည်	-10.7076
ပြင်းထန်	-10.7078
▁ဗုဒ္ဓဘာသာ	-10.7078
▁စွမ်းအား	-10.7079
▁သစ္စာဖောက်	-10.7079
▁ကြောက်လန့်	-10.7082
▁လက်ညှိုးထိုး	-10.7084
▁ဗဟို	-10.7084
▁ဂုဏ်ထူး	-10.7084
သံသရာ	-10.7085
ငှါးရမ်း	-10.7085
▁ပြစ်မှု	-10.7086
နီးနီး	-10.7087
▁ကျော်စော	-10.7089
ထွတ်	-10.7093
တားမြစ်	-10.7094
တစ်သိုက်	-10.7094
မွှန်	-10.7094
▁အေးစက်	-10.7095
▁ဦးပြည့်စုံ	-10.7095
ကောလိပ်	-10.7096
▁ခေတ်မီ	-10.7097
နယ်ပယ်	-10.7098
▁ကဗျာသစ်	-10.71
▁သူတို့တစ်တွေ	-10.7102
ပါလော့။	-10.7104
▁လုပ်ကြံ	-10.7105
▁ရွှေတိုး	-10.7107
▁ဖုတ်	-10.7107
▁ကြာကြာ	-10.7108
ပါတော့။	-10.7113
▁စာချုပ်	-10.7122
▁တိုက်ရိုက်	-10.7128
▁ြသြော်	-10.7129
ယူနစ်	-10.7131
▁ရေတွက်	-10.714
▁သူ့နှမ	-10.7148
ခဲ့သည်မှာ	-10.715
▁သူတို့အားလုံး	-10.7153
▁လာလည်	-10.7157
▁တည်ရှိ	-10.7161
▁မဟုတ်ပါ။	-10.7171
▁နေရောင်	-10.718
▁မြို့တွင်း	-10.7185
ကြွာ	-10.7187
ဘုတ်	-10.7193
▁ဒိစ	-10.7202
ပါလာသော	-10.7203
▁မောင်ဘိုး	-10.7214
▁ကလေးနှစ်ယောက်	-10.7232
မွေးနေ့	-10.7233
▁ကိုရင်ကလေး	-10.7239
အပိုဒ်	-10.7241
မယ်တဲ့။	-10.7247
▁သမီးတော်	-10.725
တစ်ခြမ်း	-10.7251
ှုန	-10.7258
အားလပ်	-10.7259
လို့မရဘူး။	-10.7266
▁လူငယ်တွေ	-10.727
အရပ်မှာ	-10.7282
ပြီပေါ့။	-10.7287
တွေ့တယ်။	-10.7289
ကြဉ်	-10.729
▁ရိုးမ	-10.7295
ှန်လှပါ	-10.7303
ပုံရသည်။	-10.7304
▁ထုတ်ဖော်	-10.7307
▁ကျေးဇူးတင်ပါတယ်	-10.7307
▁အိမ်ထောင်ကျ	-10.7317
တာမဟုတ်ဘူး	-10.7323
လှိုက်	-10.7341
▁ဖြစ်ကြသည်။	-10.7341
▁ကော်	-10.7349
ခံစားချက်	-10.7357
ဘူးဆိုရင်	-10.7362
မည်ဆိုလျှင်	-10.7363
▁ထိုနောက်	-10.7389
ကုမ္ပဏီမှာ	-10.7394
အမှုအကြောင်း	-10.7433
သေးပါဘူး။	-10.745
မင်းသမီး	-10.7455
မိတ်ဆွေများ	-10.7479
▁အမိန့်ပေး	-10.7485
အေးလေ	-10.7515
သေးပါဘူး	-10.7531
ကျန်းမာ	-10.7531
▁အစေခံ	-10.754
သို့ပေမယ့်	-10.7543
▁နှစ်လောက်	-10.7554
စာချ	-10.7563
▁သည်လိုဘဲ	-10.7572
▁ဆိုနိုင်	-10.7578
ဆရာဘုန်းတော်ကြီး	-10.7585
အောက်မေ့	-10.7587
ကြော်ငြာ	-10.7588
အစ်မကြီး	-10.759
သဲသဲ	-10.759
ဂစ်တာ	-10.7591
နဂ	-10.7593
မဂင်္လာ	-10.7594
အင်မတန်	-10.7594
ခံနေရ	-10.7596
တစ်ထောင်	-10.7605
▁မနှစ်က	-10.7613
လိုက်သေးတယ်။	-10.7629
နေလေပြီ။	-10.7659
ိလလ	-10.766
ဖြစ်လာသည်။	-10.7667
သစ္စာ	-10.7671
▁ရန်ဖြစ်	-10.7688
မွှေ	-10.7689
ထဲထည့်	-10.7695
▁လှောင်	-10.7696
▁လိုက်ပို့	-10.7697
င်္ှုံံ	-10.77
▁သနပ်ခါး	-10.77
ဓားမြှောင်	-10.77
ပုစ္ဆာ	-10.77
ဖရုငစေစိနဂ	-10.77
သံယောဇဉ်	-10.77
အတ္ထုပ္ပတ္တိ	-10.77
▁ဂရုတစိုက်	-10.77
▁ဒီဇင်ဘာ	-10.77
▁လီးအိုပို	-10.77
▁အပြန်အလှန်	-10.77
နွှဲ	-10.77
သန္ဓေ	-10.77
▁ဘဂင်္လား	-10.77
▁ဘုရင်မင်းမြတ်	-10.77
▁ာံငိနတုစဟ	-10.77
▁မောင်ရွှေတိုး	-10.77
ပါမောက္ခ	-10.77
ပိန်ပိန်	-10.77
▁ခင်သီတာ	-10.77
ကော်ဖီ	-10.77
ယိမ်း	-10.77
▁ကာသေ့	-10.77
▁သိကြားမင်း	-10.77
ုတ္တိ	-10.77
အပါအဝင်	-10.77
▁နဂို	-10.77
တစ္ဆေချောက်သည်	-10.7701
▁ကြေညာ	-10.7701
▁ပျင်းရိ	-10.7701
▁တစ်နေကုန်	-10.7701
ရွဲ့	-10.7701
▁စည်းစိမ်	-10.7702
▁ပင်လယ်လှိုင်း	-10.7702
▁အမှိုက်	-10.7702
▁အများအပြား	-10.7702
ကထာ	-10.7703
▁ဒူးထောက်	-10.7703
▁ရင်ဘတ်	-10.7703
▁တွေ့မြင်ရလေ၏။	-10.7703
မသိဘဲ	-10.7703
▁ညီအစ်မ	-10.7704
▁္တရား	-10.7704
ပြွန်	-10.7706
▁ဝမ်းမြောက်	-10.7706
▁လွန်ခဲ့သော	-10.7706
လေးဘာလေး	-10.7706
▁င်္ာံန	-10.7707
▁နည်းနည်းပါးပါး	-10.7707
သန်စွမ်း	-10.7708
မွှား	-10.7708
▁မီးခြစ်	-10.7708
▁ကျောခိုင်း	-10.771
▁အလုပ်ခွင်	-10.7712
မပြောနဲ့	-10.7712
▁ဒေါ်ဒေါ်တင်	-10.7712
မှဖြစ်မယ်	-10.7713
▁ဘာပဲဖြစ်ဖြစ်	-10.7715
ကားတစ်ကား	-10.7716
▁ထမင်းထုပ်	-10.7717
င်္ံင်္ံ	-10.7717
ပုံမရ။	-10.7717
ရှော	-10.7718
▁တတ်မြောက်	-10.7718
တောြ့	-10.7719
▁ပေါင်းစပ်	-10.7719
▁သီတာ	-10.7719
အင်းလျား	-10.7719
▁ကိုယ့်ဘာသာ	-10.7721
▁ကိုးခန်း	-10.7722
ဗြဟ္မာ	-10.7723
▁အတော်ကြာ	-10.7724
ချီပြီး	-10.7724
▁အေးဆေး	-10.7724
ဗီဇ	-10.7726
▁မှတ်ထင်	-10.7727
သီဟ	-10.7728
▁တစ်ဦးတည်း	-10.7728
လာကြတာ	-10.7729
ကိစ္စမရှိပါဘူး	-10.773
ပေါ်ပေါက်	-10.7731
▁တောင်ယာ	-10.7736
ေးသည်တွေ	-10.7739
▁ယုံကြည်ချက်	-10.7746
▁အကုန်လုံး	-10.7753
ပေမဲ့	-10.7757
ကြကြောင်း။	-10.7759
မနေပါနဲ့	-10.7761
▁အချိန်မီ	-10.7763
▁တစ်ခါမျှ	-10.7764
ပန်းကန်ပြား	-10.7766
လောက်ရှိပြီ	-10.7768
▁ကုလားထိုင်ပေါ်	-10.7776
လွဲလို့	-10.778
▁လက်ဖက်	-10.7784
▁မိန်းမတစ်ယောက်	-10.7786
▁အဲဒီတုန်းက	-10.7787
▁တစ်နိုင်ငံ	-10.7789
▁မြင်ဖူး	-10.7791
▁သားငယ်	-10.7791
ခွင့်ပေး	-10.7792
လာကြတဲ့	-10.7797
အပ်ထား	-10.7799
သိပါတယ်	-10.7799
သင့်တယ်လို့	-10.78
▁တွေ့ရ၏။	-10.7803
ဓာတ်မီး	-10.7804
▁အတင်းဝင်	-10.7806
▁ဒီလူတွေ	-10.7809
ပိတ်ထား	-10.7824
ရုံမျှ	-10.7831
ပွတ	-10.7834
▁ကျောင်းတက်	-10.7838
လေ့ရှိတယ်။	-10.7839
▁ဆက်လက်၍	-10.784
မရီတို့	-10.784
▁စောရန်နိုင်	-10.7843
ထရံ	-10.7846
လှလှလေး	-10.7847
▁အရာရာ	-10.7852
▁ရသေ့ကြီး	-10.7858
▁ဟြင်	-10.7863
▁စာနာ	-10.7872
ပြလေ၏။	-10.7881
▁မေးလျှင်	-10.7882
မကူး	-10.7885
ဒါကတော့	-10.7889
▁တွေ့ရတယ်။	-10.789
▁သည်အချိန်	-10.7895
ပင်ဆင်	-10.7903
ပွဲရုံ	-10.7907
ငါးထောင်	-10.7908
တယ်ဆိုလို့	-10.7915
ပါဘူးကွယ်	-10.7917
နားရွက်	-10.7923
▁ရှုံ	-10.7925
▁ဘယ်သူတွေ	-10.7947
တစ်ခွေ	-10.7954
ကိုယ်စား	-10.7955
▁ြအေး	-10.7955
ဒက်	-10.7989
▁မဂင်္လာဆောင်	-10.7994
▁စင်ပေါ်	-10.8
▁ဝတ်ထား	-10.8007
နေမိ၏။	-10.8009
ရဦးမှာ	-10.801
▁ကိုကိုက	-10.8014
မဟုတ်လားဗျ။	-10.8015
အကျင်္ီအိတ်	-10.8024
အတွေး	-10.8026
ဲြ့	-10.8032
သူမြတ်	-10.8053
ရုံတင်	-10.8078
▁မှုန်	-10.8082
ပြောသည့်အတိုင်း	-10.8093
▁ဒီအကြောင်း	-10.8098
တပါး	-10.8111
ပန်ရောက်	-10.8145
မြေပြင်	-10.8155
နေတတ်သည်။	-10.8168
▁ထုတ်လုပ်	-10.8178
ကျင်းပ	-10.8178
အေးအေး	-10.818
တစ်လှည့်	-10.8185
▁ကျောင်းသားကလေး	-10.819
▁လူငယ်များ	-10.8193
ကျွန်တော်တို့	-10.82
▁ရသေ့	-10.8202
▁သောင်	-10.8212
▁နာရီလောက်	-10.8233
မသတ်	-10.824
မရှိရင်	-10.8272
ဖြူစင်	-10.8276
ညား	-10.8305
တည်ဆောက်	-10.8306
အာရုံ	-10.8312
▁ဒင်း	-10.8316
ဦးခေါင်း	-10.8318
အများစု	-10.8318
သာသနာ	-10.8319
▁ရွံ	-10.8322
▁အာမခံ	-10.8325
▁ရင်ခွင်	-10.8336
အုံးမယ်	-10.8338
▁တစ်သက်	-10.8339
ချောက်ချား	-10.8344
▁ဗယ	-10.8345
▁ပုတ်သင်	-10.8366
ပါလာတဲ့	-10.8366
▁တီဗွီ	-10.8367
▁အဘယ့်ကြောင့်	-10.8367
နိကာယ်	-10.8367
နှောင့်ယှက်	-10.8367
ပတ္တမြား	-10.8367
ရက်ဂျူလပ်	-10.8367
▁ကျော်ကျော့်	-10.8367
▁မုလေးပန်း	-10.8367
▁သဒ္ဓါ	-10.8367
▁သပ်သပ်ရပ်ရပ်	-10.8367
▁အဂင်္လန်	-10.8367
▁ဦးရီးတော်	-10.8367
▁ှုတပုတ	-10.8367
ဗိမာန်	-10.8367
▁နှစ်ဘက်ချွန်	-10.8367
စိုစွတ်	-10.8367
▁စကားတစ်ခွန်း	-10.8367
▁ဘိုင်အို	-10.8367
▁ဟိုရေးရှပ်	-10.8367
▁ပျား	-10.8367
▁တစ်ကိုယ်တည်း	-10.8367
ရေဒီယို	-10.8367
အန်ကယ်	-10.8367
တည်တံ့	-10.8367
▁ခွန်အား	-10.8367
▁သာမည	-10.8367
▁ိုဟ်	-10.8367
ညေလေ	-10.8367
▁ဘာ့ကြောင့်	-10.8367
မောင်ခင်မောင်	-10.8367
▁စိတ္တ	-10.8367
▁ပေါင်းသင်း	-10.8367
ရာစဟ	-10.8368
▁သဲပြင်ပေါ်	-10.8368
▁ရှောင်ကြဉ်	-10.8368
▁ပက်လက်	-10.8368
▁အတူတကွ	-10.8368
▁သီးခြား	-10.8369
▁ရောင်စုံ	-10.8369
▁ခပ်သွက်သွက်	-10.8369
▁ညီအစ်ကို	-10.8369
မျဉ်	-10.837
▁ဒုံးအဖွဲ့	-10.837
▁ဖိတ်ခေါ်	-10.8371
▁လူမှုရေး	-10.8371
မှီခို	-10.8371
မွဲ	-10.8372
▁မာန်အောင်	-10.8372
▁အရွယ်လတ်	-10.8372
▁မော့ကြည့်	-10.8372
▁ပေါ့ပေါ့	-10.8373
ချောမော	-10.8374
မုန်းတီး	-10.8374
▁နာမ်	-10.8374
▁ဒို့	-10.8375
▁တကယ်တမ်း	-10.8375
▁ခန့်မှန်း	-10.8377
▁ဉာဏ်ပညာ	-10.8377
▁အသက်ရှူ	-10.8377
▁မီးလောင်	-10.8378
▁သယ်ဆောင်	-10.8379
▁အမတ်ကြီး	-10.8379
ရုံမက	-10.838
အစောကြီး	-10.838
▁အပုံကြီး	-10.8382
▁ဘယ်သူကမှ	-10.8384
▁ရိုက်ခတ်	-10.8385
▁မျက်နှာဖုံး	-10.8387
▁ပေးကမ်း	-10.8388
▁သမီးဖြစ်သူ	-10.8388
စာမျက်နှာ	-10.8391
ဝမ်းကွဲ	-10.8392
▁လူ့ဘဝ	-10.8392
▁စာအုပ်ဖြစ်သည်။	-10.8394
▁၏ရု	-10.8395
လည်ပင်းကို	-10.8396
▁မေးခွန်းထုတ်	-10.8396
▁အများဆုံး	-10.8398
▁သြူ	-10.84
▁ကလောင်	-10.8401
▁အမှန်အတိုင်း	-10.8404
▁ဆွဲဆောင်	-10.8405
ကြေးငွေ	-10.8416
▁ဒီအချိန်မှာ	-10.8417
▁မမျှော်လင့်	-10.8417
▁နည်းလမ်း	-10.8423
တမ်းတ	-10.8427
▁တောထွက်	-10.8429
▁ထိုမိန်းမ	-10.8432
▁စိုက်ကြည့်	-10.8432
▁လမ်းပေါ်မှာ	-10.8432
▁မမနွေ	-10.8433
ှောက်	-10.8435
သရွေ့	-10.8435
အတိုင်းအတာ	-10.8438
▁တစ်ကျပ်	-10.8439
▁အိမ်ဖော်	-10.8445
▁ပတ်သက်၍	-10.8449
ပဒေသာ	-10.845
▁အပြင်ဘက်	-10.8455
ဟောင်	-10.8457
▁ဘီလူးများ	-10.8458
ပျက်ကွက်	-10.8458
▁ဒီတစ်ခါတော့	-10.8462
▁ပတ်သက်ပြီး	-10.8463
▁လက်ယာ	-10.8474
ပြန်ရော။	-10.8474
ကျောက်တုံး	-10.848
▁နံနက်စာ	-10.8481
▁လိုင်း	-10.8483
အပေါ်ထပ်	-10.8486
မရွေး	-10.849
မိန်း	-10.8502
ဒီအချိန်	-10.8504
အနဓ	-10.8506
မတွေ့ဘူး	-10.8512
▁သဘေင်္ာသား	-10.8514
▁လှုပ်ရှားမှု	-10.8519
သင်တန်းများ	-10.853
▁အကျိုးရှိ	-10.8543
ရောက်လာပြီး	-10.8559
▁သူ့ဘဝ	-10.8562
တွေကြားမှာ	-10.8563
▁အဝေးကြီး	-10.8569
အမည်ရှိ	-10.8569
နေကြသည်ကို	-10.8572
စစ်သားများ	-10.8573
▁စိတ်အေး	-10.8587
နဆ	-10.8596
▁အိပ်ရာထဲ	-10.8599
ချည်ထား	-10.86
▁လီအွန်းနီဒက်	-10.8602
ခံတပ်	-10.8617
▁ဘုရားပွဲ	-10.864
▁ခါတိုင်းလို	-10.8643
▁သဘောမတူ	-10.8644
▁ငွေစက္ကူ	-10.8648
ပါသလဲ။	-10.8651
▁သူပုန်	-10.8651
ထိုအချိန်တွင်	-10.869
ပြီမို့	-10.8729
▁အဲဒီအချိန်မှာ	-10.8752
▁သို့ဖြစ်	-10.8754
▁ရေးသားထား	-10.8794
▁မကြာသေး	-10.8802
▁ရန်သူများ	-10.8826
ရှိသလဲ	-10.8832
▁လွယ်လွယ်	-10.8854
ဝင်ငွေ	-10.8859
ရထားနဲ့	-10.8878
ဘဲဗျို့	-10.8898
▁အာရပ်များ	-10.8903
▁မျက်ရည်တွေ	-10.8915
အုပ်ချုပ်	-10.8917
ကြွလာ	-10.8922
▁မမစိုး	-10.8943
ဒေါန	-10.8947
▁ရှက်စရာ	-10.8957
▁ညောင်	-10.8969
ခဲ့ရပါတယ်။	-10.8974
သည့်အပြင်	-10.8997
စုံထောက်ပုံ	-10.9031
ပန်ရောက်လာ	-10.9033
ဆြို	-10.9037
▁မုဆိုးမ	-10.9046
မည်ပြု	-10.9053
ပြန်မလာ	-10.9059
၊ကိးစား	-10.9068
မိဖုရား	-10.9069
ဖျက်ဆီး	-10.9072
နှလုံးသား	-10.9073
မေတ္တာ	-10.9073
ပျော်ရွှင်	-10.9073
ပတ်ဝန်းကျင်	-10.9076
သြဇာ	-10.9076
ငါလ	-10.9076
ချွေး	-10.9077
ပို့ချ	-10.9078
ဒေါ်ဘုမ	-10.9081
ရိက္ခာ	-10.9081
ုင်းအိုနစ်ရှီယပ်	-10.9081
▁ခေါင်းတုံးမလေး	-10.9081
▁ဂါးထရု	-10.9081
▁စေ့စေ့စပ်စပ်	-10.9081
▁လွှမ်းမိုး	-10.9081
▁အပြေးအလွှား	-10.9081
မြို့သူမြို့သား	-10.9081
ဟင့်အင်း	-10.9081
▁ကရင်အမျိုးသား	-10.9081
▁ကိုဝင်းမော်	-10.9081
▁ကေအင်ဒီအို	-10.9081
▁ညိဒေု	-10.9081
▁အထောက်အကူ	-10.9081
▁အလှူ့ဒကာ	-10.9081
တံခွန်	-10.9081
ပျော်ပျော်ပါးပါး	-10.9081
▁စာရိတ္တ	-10.9081
▁ရိုက်နှက်	-10.9081
▁ဆေးပေါ့လိပ်	-10.9081
ထိုတိုက်အိမ်ကြီး	-10.9081
ပဟိင	-10.9081
သောင်းကျန်း	-10.9081
အတိအကျ	-10.9081
▁အပျင်းပြေ	-10.9081
▁အမှတ်တမဲ့	-10.9081
▁ကိုမိုးသီး	-10.9081
အခမ်းအနား	-10.9081
▁တီထွင်	-10.9081
▁ဆိုးရွား	-10.9081
▁အဆင့်အတန်း	-10.9081
မောင်ရွှေရိုး	-10.9081
▁နှိုင်းယှဉ်	-10.9081
▁တင့်တယ်	-10.9081
▁ဦးဘိုးသန်း	-10.9081
▁ရေကူးဝတ်စုံ	-10.9081
▁သူကြီးကတော်	-10.9081
မုတ်ဆိတ်	-10.9081
▁ငယ်ငယ်တုန်းက	-10.9082
ပန်းသီးကွန်ပျူတာ	-10.9082
▁အရေးတကြီး	-10.9082
နမူနာ	-10.9082
ဆုတောင်း	-10.9082
▁ပျောက်ကွယ်သွား	-10.9082
အထပ်ထပ်	-10.9083
▁လက်မှတ်ထိုး	-10.9083
ခေါ်ဝေါ်	-10.9083
ချို့တဲ့	-10.9083
▁အိမ်ရှေ့မင်းသား	-10.9084
▁သြဝါဒ	-10.9084
ဘိသကဲ့သို့	-10.9084
▁လူ့လောက	-10.9084
ဘာဘူကြီး	-10.9084
▁ချောင်းမြောင်း	-10.9085
စေကာမူ	-10.9085
ဘန်ဂါလီကုလား	-10.9085
▁ပေါ့ပါး	-10.9086
▁ဘောလုံး	-10.9086
▁ချီတက်လာ	-10.9086
အဟုန်	-10.9087
▁စာအုပ်တစ်အုပ်	-10.9087
▁တီးခတ်	-10.9088
စော်ကား	-10.9089
▁သာဓု	-10.9089
▁လူပျို	-10.9089
▁သကင်္န်းဝတ်	-10.9089
▁ကွဲပြား	-10.9089
▁အတော်များများ	-10.9089
လှောင်ပြောင်	-10.909
ဘဏ်	-10.909
ဝမ်းနည်း	-10.9091
ဒူး	-10.9091
▁ဒကာမများ	-10.9092
▁အရှင်ဘုရား	-10.9092
▁နို့ပေမယ့်	-10.9094
▁ပေါက်ကွဲ	-10.9095
▁အဂင်္လိပ်စာ	-10.91
မန်မာ	-10.9102
▁မင်းနောင်	-10.9102
▁တစ်ခွန်း	-10.9102
▁ကိုဆောင်း	-10.9103
▁မျှော်လင့်ချက်	-10.9103
▁ပြန်လှည့်	-10.9103
▁မောင်ပေါ်လာ	-10.9103
▁အထက်တန်း	-10.9103
တန်းလန်း	-10.9104
▁မှိုင်း	-10.9105
ဟေ့ကောင်	-10.9105
▁နာရီခွဲ	-10.9107
▁ရေးဖွဲ့	-10.9108
▁တူညီ	-10.9109
မယ်နော်	-10.9109
▁သည်စာရွက်	-10.911
▁ဆေးကျမ်း	-10.911
ပြည်ထောင်	-10.911
လျက်ရှိစဉ်	-10.9111
သံကြိုး	-10.9111
▁လပြည့်	-10.9112
▁မိုးချုပ်	-10.9113
သဘောတူ	-10.9113
▁တကယ်ဆိုတော့	-10.9114
အဖုံးကို	-10.9115
▁ရှေ့ဆက်	-10.9116
▁သက္က	-10.9118
▁ဗမှန်	-10.9118
ယခု	-10.912
▁မဟုတ်ပေ။	-10.9122
သံမကြား	-10.9122
ေးဆစ်	-10.9123
▁သည်သူငယ်	-10.9126
▁ရေးမှတ်	-10.913
▁ပြုံးပြ	-10.913
▁အိမ်ဘက်သို့	-10.9132
▁မကျန်းမာ	-10.9132
▁ဆတုရ	-10.9132
ဆေးရုံ	-10.9136
မပြောတတ်ဘူး	-10.9136
နယ်မြေ	-10.9145
▁နည်းနာ	-10.9151
▁အိပ်ခန်း	-10.9155
မြင့်မြတ်	-10.9159
တိုင်တိုင်	-10.916
▁စဉ်းစားစရာ	-10.9168
ဆံပင်	-10.9173
▁တိုက်ဆိုင်	-10.9174
နိုးနိုး	-10.9182
ေါ	-10.9184
▁လျှောက်တင်	-10.9185
▁ကော့	-10.9186
ထွက်သွားသည်။	-10.919
▁ရောက်ဖူး	-10.9192
လှပေ။	-10.9196
တွေးတော	-10.9199
တစ်ဆူ	-10.9207
▁ဒါမှမဟုတ်ရင်	-10.921
▁ပေါ်လာသည်။	-10.9212
ပဒေသ	-10.9213
တဲ့အထဲမှာ	-10.9215
▁စာတန်း	-10.9219
▁ညောင်ပင်ကြီး	-10.9224
▁လူကြီးတစ်ယောက်	-10.9228
▁အနိုင်ရ	-10.9242
ဇက်	-10.9243
ငါးကျပ်	-10.9246
▁လေသံ	-10.9247
အကျင်္ီလေး	-10.9294
▁ဂရိပြည်	-10.9297
▁ပူပန်	-10.9297
နိုင်ပါ့မလား	-10.9333
ထင်မြင်	-10.9346
▁သားသမီးတွေ	-10.936
ဝံ	-10.9399
တာလြဲ	-10.9401
ရဲတိုက်	-10.9411
ကြာမြင့်	-10.9429
▁ကိုကျောက်ခဲ	-10.9442
ဆဆ	-10.9458
▁ရွှေဘို	-10.9468
▁ကိုယ့်အိမ်	-10.9469
ခွင့်မရ	-10.9486
အသင်းကြီး	-10.949
နားရောက်	-10.95
▁အဲလို	-10.9506
▁ငယ်စဉ်	-10.9508
▁အဲဒီအချိန်	-10.9515
သတ်တဲ့လူ	-10.9521
▁ယခုအချိန်	-10.9526
သရုပ်ဖော်	-10.9537
ပန်းသီး	-10.9537
နေ့တစ်နေ့	-10.9556
တာပါဘဲ	-10.9559
ကလူတွေက	-10.9559
တို့တစ်တွေ	-10.956
ပူပူ	-10.9562
ဘယ်ရောက်	-10.9564
ကိုးဗျ။	-10.9565
▁ဆင်ခြေ	-10.9604
▁အော်သံ	-10.9616
နဲ့တူတယ်	-10.963
▁တောင်ပေါ်	-10.9648
အကဲခ	-10.9649
▁ခရီးသည်များ	-10.9672
ရမှာလား	-10.9695
လည်လည်	-10.9714
ဘိုးမှီ	-10.9745
စမ်းဗျာ	-10.9754
▁ဘုန်းတော်	-10.978
▁ပစ်ထား	-10.9781
ပေမည်။	-10.9786
▁လရောင်	-10.9791
ိဂဟ	-10.9804
▁အမှတ်တရ	-10.9812
လမ်းညွှန်	-10.9823
▁ွှိနဒုဝ	-10.9832
နေတာလား	-10.9833
ငှါ	-10.9833
▁ဘန်ဂါလီ	-10.9846
▁ဒူဝေ	-10.9847
▁ဘုရင့်	-10.9849
▁ချယ်ရီ	-10.985
ထိမ်းမြား	-10.985
▁ဂပ်ဇမန်း	-10.985
▁ဒွန်ဂျူးအန်	-10.985
နှိမ်	-10.985
ပပလငါတိုန	-10.985
▁စရေိစေ	-10.985
▁ဆူဆူညံညံ	-10.985
▁ဇိမ်ခံ	-10.985
▁တံမြက်စည်း	-10.985
▁ထငေဟနုလုဂယ	-10.985
▁ဓညေိငစေ	-10.985
▁ပင်ပင်ပန်းပန်း	-10.985
▁ပြက္ခဒိန်	-10.985
▁ဘတ်စ်ကား	-10.985
▁မော်လမြိုင်	-10.985
▁အသည်းနှလုံး	-10.985
▁ံမေုရယ	-10.985
နူးညံ့	-10.985
မန်နေဂျာ	-10.985
သိမ်မွေ့	-10.985
▁ကြျုပ်	-10.985
▁ညည်းညူ	-10.985
▁ပံ့ပိုး	-10.985
▁လဂွန်းအိမ်	-10.985
▁လျက်ဆား	-10.985
အမရပူရ	-10.985
▁ကမာရွတ်	-10.985
▁ဘယ့်လောက်	-10.985
▁ဘုရားရှိခိုး	-10.985
▁အောင်ကျော်စိုး	-10.985
အားလျော်စွာ	-10.985
ဝှမ်း	-10.985
▁အရည်အချင်း	-10.985
▁ဓိစက	-10.985
▁အတွေးအခေါ်	-10.985
▁အမူအကျင့်	-10.985
▁ရှမ်းပြည်	-10.985
▁ကြွယ်ဝချမ်းသာ	-10.985
▁တစ်စတစ်စ	-10.985
▁ကျေးငှက်	-10.985
ရွှန်း	-10.9851
အဆင်မပြေ	-10.9851
များများစားစား	-10.9851
အဆက်ဆက်	-10.9851
▁တိုင်းရင်းဆေး	-10.9851
ရုဏ်	-10.9851
မယွင်း	-10.9851
▁ချိန်ခွင်	-10.9851
▁ရဲဘော်ဖြူ	-10.9851
▁တံတွေး	-10.9851
တစ်ပြည်လုံး	-10.9851
▁လုယက်	-10.9851
ရုံမျှမက	-10.9851
▁ဖြေဆို	-10.9851
▁ဆယစတမေ	-10.9851
▁ပိုးဟပ်	-10.9851
စကြင်္ံ	-10.9852
▁ရုရှား	-10.9852
▁မျဉ်း	-10.9852
▁ကံဆိုး	-10.9852
ရောဂါပိုး	-10.9853
▁ခုနက	-10.9853
▁ငရုတ်သီး	-10.9853
▁ကျေးလက်	-10.9853
▁ဆီဇာ	-10.9853
တွန်သံ	-10.9853
▁တင်းမာ	-10.9853
▁ဖော်ထုတ်	-10.9854
▁ရှုခင်း	-10.9854
▁မှန်ဘီလူး	-10.9854
▁ခပ်အေးအေး	-10.9854
ရုပ်ကောင်ကြီး	-10.9854
ထွေထွေ	-10.9854
▁ဒုတိယအကြိမ်	-10.9855
▁ဒါပေမဲ့	-10.9855
▁ဒီမိုကရေစီစနစ်	-10.9855
▁အစအဆုံး	-10.9855
ပျော်ရွှင်ရွှင်	-10.9855
▁နှမတော်	-10.9855
▁မြင်းလှည်း	-10.9856
▁ကွန်ပျူတာဂျာနယ်	-10.9856
▁မွန်မွန်	-10.9856
▁ငယ်ရွယ်	-10.9857
▁အသက်ရှင်နေ	-10.9857
ယုတ်မာ	-10.9858
ဆိုင်တစ်ဆိုင်	-10.9858
▁အကြာကြီး	-10.9858
ပေတော့မည်။	-10.9858
▁ဆုပ်ကိုင်	-10.9858
ပြီးသည့်နောက်	-10.9858
▁သရက်သီး	-10.9859
▁ချော်ပါ	-10.986
▁တီးတိုး	-10.986
▁ဂစ်တာတီး	-10.9861
▁ခေါင်းအုံး	-10.9861
▁ဟစ်	-10.9864
▁ထည့်သွင်း	-10.9864
▁သားမယား	-10.9865
တစ်ဝိုက်	-10.9866
▁စိတ်ကျေနပ်	-10.9866
▁ပစ္စည်းပျောက်	-10.9871
▁သက်သေပြ	-10.9871
သည့်အသံ	-10.9871
နှစ်ခြိုက်	-10.9872
▁စွန့်ပစ်	-10.9874
▁ခရီးဆက်	-10.9875
▁စွဲချက်	-10.9875
▁္တန်	-10.9875
▁အလှူရှင်	-10.9877
▁အထင်သေး	-10.9877
နုနယ်	-10.9877
ဂုဏ်ကျေးဇူး	-10.9879
▁မယ်ရှင်	-10.9879
မနေ့ညက	-10.988
▁အချိန်အခါ	-10.9885
▁ဖုန်းဆက်	-10.9885
▁ဖြတ်ကျော်	-10.9886
▁ပြည်သူ့	-10.9888
နှောက်	-10.9888
လှေခါး	-10.989
▁သဘောတရား	-10.989
▁ရှိပါသေးတယ်။	-10.9891
▁အမျိုးသားရေး	-10.9891
▁ဒီကြားထဲ	-10.9891
▁မျှတ	-10.9892
▁ခရီးထွက်	-10.9893
▁သီဆို	-10.9894
▁ပုံမှန်	-10.9896
ျောင်းတစ်ကျောင်း	-10.9899
▁လက်လျှော့	-10.9901
▁အပြစ်တင်	-10.9903
▁စကားဝိုင်း	-10.9903
သည့်လက္ခဏာ	-10.9903
▁ယခုကဲ့သို့	-10.9904
▁ငိုင်	-10.9904
▁တောရွာ	-10.9906
▁နာရီထိုး	-10.9906
ပြူတင်းပေါက်	-10.9907
အကောင်းဆုံး	-10.9908
ကျောင်းတော်ကြီး	-10.9909
ကမ်းခြေ	-10.9909
သုတ်သင်	-10.9911
▁သင့်တော်	-10.9911
လုံချည်	-10.9913
ဗေဒင်	-10.9914
▁အဲဒီခေတ်	-10.9917
▁လူပျိုကြီး	-10.9919
နီနီ	-10.9921
▁မင်းကြီးသည်	-10.9921
လှေကား	-10.9923
အဒေါ်	-10.9924
ညောင်ပင်	-10.9926
▁ထိုနေ့ည	-10.9927
▁သမက်	-10.9928
▁တော်ကြာ	-10.9928
ဆေးတံ	-10.9931
အစီအစဉ်များကို	-10.9936
▁ဂျူ	-10.9939
ပါးစပ်	-10.9942
သင့်မြတ်	-10.9955
္ပိ	-10.9958
အခြေခံ	-10.9969
အဆိုရှင်	-10.9972
▁ကြောက်စရာ	-10.9972
▁သတ်မှတ်ထား	-10.9975
ဆေးထိုး	-10.9981
ဝတ်စုံ	-10.9983
▁ဂီတသံ	-10.9996
ကျိန်း	-11.0004
▁အရွယ်ရောက်	-11.0008
ပြီလေ။	-11.0009
တွေးနေမိ	-11.0012
မြှော	-11.0031
ထွ	-11.0049
အခါခါ	-11.0077
ကားမောင်း	-11.0081
▁ရောမတို့	-11.0085
နာရီခန့်	-11.0092
အဖွဲ့ဝင်	-11.0153
▁အပြင်ထွက်	-11.0154
▁ခေါင်းခါ	-11.0155
▁မလိုပါဘူး	-11.0166
ဗုဒ္ဓ	-11.019
▁ကာယ	-11.0229
ထုတ်လုပ်သူ	-11.0234
ကျော်ကျော်က	-11.0235
တစ်လောက	-11.0276
▁လျှပ်စစ်	-11.0312
▁ငွေစက္ကူတွေ	-11.0352
▁မီးဖိုထဲ	-11.036
မဟုတ်တော့ဘူး	-11.0386
▁သူ့နာမည်	-11.0404
တဆိပ်	-11.0404
▁ပြည်တွင်း	-11.0418
ရှားပါး	-11.0424
▁မဆိုနိုင်	-11.0442
▁ဆိုလိုတာ	-11.0463
ဝါသနာ	-11.0467
မတူဘူး	-11.0497
အဓိ	-11.0504
▁ပျဉ်	-11.0524
▁မြတ်စွာ	-11.0536
ပါဘူးရှင်	-11.0546
သတဲ့ဗျ	-11.0549
စိတ်ချပါ	-11.0646
▁ရှင်းရှင်း	-11.0658
▁လွှ	-11.0665
▁ဒီပလိုမာ	-11.067
လက်ခုပ်သံ	-11.067
စ္ဆေ	-11.0672
▁ပဉ္စ	-11.068
ဂျာနယ်	-11.0682
▁ဘူရိဒတ်လကင်္ာ	-11.0684
▁ကိုယ်စားလှယ်	-11.0684
▁ထာဝရ	-11.0684
▁အသိအမှတ်ပြု	-11.0684
▁အိန္ဒိယ	-11.0684
ကျဲကျဲ	-11.0684
စိမ့ငှါ	-11.0684
ဆတ်ဆတ်	-11.0684
တြဲ့။	-11.0684
ဒူးဆဟွီး	-11.0684
ဝဏ္ဏ	-11.0684
အသိုင်းအဝိုင်း	-11.0684
▁ကမ္ဘာလိပ်မကြီး	-11.0684
▁ကိုဆန်းထွန်းဦး	-11.0684
▁ကျကျနန	-11.0684
▁ဓှုဆ	-11.0684
▁နိုဝင်ဘာ	-11.0684
▁မည်သူ့ကိုမျှ	-11.0684
▁အကျင့်စာရိတ္တ	-11.0684
▁အယ်ဒီတာ	-11.0684
▁အလုအယက်	-11.0684
▁ကိုမြဇင်	-11.0684
▁တပြိုင်နက်	-11.0684
▁တဖြည်း	-11.0684
▁တူရကီ	-11.0684
▁မတ်တတ်ရပ်	-11.0684
▁မိုးကောင်းကင်	-11.0684
▁မြှုပ်နှံ	-11.0684
▁ရုန်းကန်	-11.0684
▁မောင်သုတ	-11.0684
အပြောင်းအလဲ	-11.0684
▁ကြိုးစားအားထုတ်	-11.0684
▁အစားအသောက်	-11.0684
ဂြိုလ်	-11.0684
▁ဂျာနော	-11.0684
▁တစ်ကမ္ဘာလုံး	-11.0684
▁မေမြတ်မျိုး	-11.0684
▁ကောင်းမွန်စွာ	-11.0684
▁မိန့်ခွန်း	-11.0684
▁မိတ်ဆက်ပေး	-11.0684
မော်ကွန်း	-11.0684
▁လေးလံ	-11.0684
▁တွေ့မရှောင်	-11.0684
▁မလှရှက်	-11.0684
အနေအထိုင်	-11.0684
▁ကိုယ့်ဟာကိုယ်	-11.0684
ပိုက်ကွန်	-11.0684
▁ပြောစမှတ်	-11.0684
မယ်မထင်ပါဘူး	-11.0684
▁ထမ်းပိုး	-11.0684
▁ဂါဝန်	-11.0684
ပြောရမှာဖြင့်	-11.0684
မောင်ဘဆိုင်	-11.0684
တောင်ပံ	-11.0684
ကျက်သရေ	-11.0684
▁သင်ကြားပို့ချ	-11.0684
▁အကြောင်းပြုပြီး	-11.0684
▁ဇွဲကပင်	-11.0684
▁ငယ်ငယ်ကတည်းက	-11.0684
သနည်းဟု	-11.0684
▁စူးရှ	-11.0684
အသနားခံ	-11.0685
ပိတ်ဆို့	-11.0685
ဆိုင်းဘုတ်	-11.0685
▁တစ်ညလုံး	-11.0685
▁ဂေါလ	-11.0685
▁အစားအစာ	-11.0685
▁ရိုသေစွာ	-11.0686
▁ကိုမြတ်သူ	-11.0686
▁ပင်းယ	-11.0686
▁ပထမဆုံးအကြိမ်	-11.0686
အပြည့်အစုံ	-11.0686
▁တင်းတင်း	-11.0686
▁ကန်တော်ကြီး	-11.0686
▁အြဖေ	-11.0687
▁လူ့ဘောင်	-11.0687
▁မျက်ခုံး	-11.0687
▁မေ့လျော့	-11.0687
▁မိဘနှစ်ပါး	-11.0688
ပုသ်စောင့်	-11.0688
▁ဟြဲ့	-11.0688
ခွခွါ	-11.0688
ဆင်ဖြူကြီး	-11.0689
▁အကြံဉာဏ်	-11.0689
▁မှန်းဆ	-11.0689
▁ဒေသခံ	-11.0689
▁မနာလို	-11.0689
▁လေယာဉ်မှူး	-11.0689
▁မည်ကဲ့သို့	-11.069
▁သူတော်ကောင်း	-11.069
▁အငယ်ကောင်	-11.069
ရင့်ကျက်	-11.0691
▁အဂင်္လိပ်ဘာသာ	-11.0691
▁အများအားဖြင့်	-11.0691
ကြောင်ကြောင်	-11.0691
▁ဒရိည	-11.0691
▁စည်းရုံး	-11.0692
▁ဝိုင်းဝန်း	-11.0692
စပြုလာ	-11.0693
ကြီးကြီးကျယ်ကျယ်	-11.0693
သေချာအောင်	-11.0694
စွင့်	-11.0694
ဘယ့်နှယ်သိသလဲ	-11.0694
▁ြရောဂါပိုးြ	-11.0694
▁ရှင်ဘုရင်	-11.0696
▁ဆန်းစစ်	-11.0696
▁ဝင်းတံခါး	-11.0697
▁ဆုငွေ	-11.0697
ဖေါ်	-11.0697
▁ပြည်တဲ	-11.0697
စမ်းပါအုံး	-11.0698
▁မမစိမ်း	-11.0699
▁ဗိမ္ဗိသာရမင်း	-11.07
▁ကြည့်ရသည်မှာ	-11.07
▁မယ်မြ	-11.07
▁ဘရိတ	-11.0701
▁စောဝေ	-11.0702
▁ထဘီ	-11.0702
ပိုင်ခွင့်	-11.0703
▁ငါးဖမ်း	-11.0703
ပမာဏ	-11.0704
▁ယနေ့ည	-11.0704
▁ရှာကြံ	-11.0704
▁အားကစား	-11.0704
▁မီးဖိုဆောင်	-11.0705
▁စိတ်ဆင်းရဲ	-11.0705
▁ကြမ်းပြင်	-11.0705
▁ထမင်းဝိုင်း	-11.0707
▁အမျက်ထွက်	-11.0708
ရုပ်ရှင်မင်းသမီး	-11.0709
▁တွေ့ကြုံ	-11.0709
▁ကြက်တင်း	-11.0709
▁စိုးကျော်	-11.0709
▁ဆေးတက္ကသိုလ်	-11.0709
▁အခန်းတံခါး	-11.071
ဟုတ်ပါတယ်ခင်ဗျာ	-11.0712
အံမယ်	-11.0714
ာနခွဲ	-11.0716
▁ဒြါဖြင့်	-11.0718
▁သားဖြစ်သူ	-11.0719
▁သည်လိုဗျ။	-11.0721
▁အတတ်ပညာ	-11.0723
ီဗီ	-11.0723
▁လိုအပ်ချက်	-11.0723
အာဏာပိုင်	-11.0724
▁လက်ဝှေ့ပွဲ	-11.0726
▁မိုးမိုး	-11.0729
သလြဲ	-11.073
▁ဒင်ကြီးတို့	-11.0734
ဟန်လက္ခဏာ	-11.0734
ဟင်းခါး	-11.0736
▁ရွှေရောင်	-11.0737
မြန်မာနိုင်ငံမှာ	-11.0739
ပေါင်းစုံ	-11.0742
ပြောချင်တာက	-11.0743
▁ဆိုင်ရှင်	-11.0746
▁ထိုသူတို့	-11.0751
▁မိုက်မဲ	-11.0753
ချင်တဲ့စိတ်	-11.0757
▁သင်ကြားပေး	-11.0766
ဝင်းဝင်း	-11.0774
နှင်းဆီ	-11.079
▁နှစ်ယောက်လုံး	-11.0791
မြန်မြန်	-11.0803
သင်တန်းကျောင်း	-11.0804
▁သတ်ပစ်	-11.0804
ကင်းမဲ့	-11.0805
▁အကြံတစ်ခု	-11.0807
ချီးမွမ်း	-11.0808
ရည်ရွယ်ချက်	-11.0809
ဝေဒနာ	-11.081
အသုံးချ	-11.0815
ဘယ်တော့မှ	-11.0818
ကုလားထိုင်	-11.082
ပိုက်ဆံ	-11.0821
▁ဆိုက်ရောက်	-11.0822
စည်းကမ်း	-11.0822
စုရုံး	-11.0826
▁နောက်တစ်ခုက	-11.0829
ခရီးစဉ်	-11.0833
အနုပညာ	-11.0833
သံညှပ်	-11.0835
တည်းခို	-11.0836
လုပ်ရမှာ	-11.0856
▁မမစိုးတို့	-11.0868
တဲ့လက္ခဏာရှိတယ်	-11.0873
သောသူသည်	-11.0896
ပေါ့ကွယ်။	-11.0901
▁ဆောက်ထား	-11.0902
▁ဒေါ်မြ	-11.0905
မလုပ်ဘဲ	-11.0921
လုပ်ငန်းများ	-11.0923
▁လှမ်းကြည့်လိုက်	-11.0924
ဘက်ကမ်း	-11.0925
▁သာသနာတော်	-11.0926
နှစ်လောက်က	-11.0928
▁သူငယ်ကလေး	-11.0928
▁ဂျို	-11.0936
▁မဟုတ်ဘူးလား	-11.0937
စောရန်နိုင်က	-11.095
တို့တတွေ	-11.096
သင်ပုန်း	-11.1002
▁ပြုလုပ်ထား	-11.103
▁ကျိန	-11.1032
▁ပစ်ချ	-11.1074
▁ရယ်မောလျက်	-11.1075
▁ထည့်ထား	-11.1113
ရွှင်ရွှင်	-11.1129
ထင်သလောက်	-11.1129
▁သမီးရယ်	-11.1153
ဟသင်္ာ	-11.1186
▁နှာတံ	-11.1191
ဘုဉ်းပေး	-11.12
ျောင်း	-11.1257
ပန်လာခဲ့	-11.1266
ည့်ခန်း	-11.1322
▁စကားမပြော	-11.1326
တင်မက	-11.1347
▁မပြီးသေး	-11.1366
ာတော်များ	-11.1385
စုံမက်	-11.1438
▁သားအမိ	-11.1484
▁ချန်	-11.1519
▁ငှက်ပျော	-11.1557
▁င်္ာံ	-11.1583
▁ဖယောင်း	-11.159
သွက်သွက်	-11.159
ခိုင်လုံ	-11.159
▁ဂန္ဓ	-11.1593
ဗန္ဓု	-11.1593
▁ပုဇွန်တောင်	-11.1593
ဖွေးဖွေး	-11.1593
▁ကိုဇော့်	-11.1593
▁စောစောစီးစီး	-11.1593
▁တောင်သူလယ်သမား	-11.1593
▁နပိုလီယန်	-11.1593
▁နေကာမျက်မှန်	-11.1593
▁ဘယ့်ကလောက်	-11.1593
▁မူမူအေး	-11.1593
▁ယာသမားဇနီး	-11.1593
▁အငြိမ့်	-11.1593
နတရေနတေ	-11.1593
နွေးနွေး	-11.1593
ဗွီဒီယို	-11.1593
သမာဓိ	-11.1593
ိံငရုစု၏တ	-11.1593
▁ကိုထွန်းဇံ	-11.1593
▁ဂျော်ကီ	-11.1593
▁စားဝတ်နေရေး	-11.1593
▁ဆရာတင်မောင်အေး	-11.1593
▁ဓိာလုဂ	-11.1593
▁ပုဂ္ဂလိက	-11.1593
▁ဖရိုဖရဲ	-11.1593
▁ယိုးဒယား	-11.1593
▁ရုပ်မြင်သံကြား	-11.1593
▁လွတ်လွတ်လပ်လပ်	-11.1593
▁ဦးကျောက်ပွင့်	-11.1593
ှံဇ	-11.1593
▁ကိုမြင့်သိန်း	-11.1593
▁စက္ကန့်	-11.1593
▁ဗြုန်း	-11.1593
▁အကာအကွယ်	-11.1593
ဦးစံရှား	-11.1593
▁ထောပတ်	-11.1593
▁ကန့်ကွက်	-11.1593
ယာယီ	-11.1593
▁လှလှပပ	-11.1593
ခြောက်သွေ့	-11.1593
▁ကိုမြင့်မောင်	-11.1593
▁တခါတလေ	-11.1593
▁ထောင်ဝင်စာ	-11.1593
▁ရွှေစက်တော်	-11.1593
ချင့်ချိန်	-11.1593
▁အလှူအတန်း	-11.1593
အောင်ပွဲနေ့	-11.1593
▁ရွေ့လျား	-11.1593
▁နားမထောင်	-11.1593
▁အားရပါးရ	-11.1593
▁ကျယ်ပြန့်	-11.1593
▁နားစွင့်နေ	-11.1593
ဗုံး	-11.1593
▁ယှဉ်ပြိုင်	-11.1593
▁တလက်လက်	-11.1593
ခံနိုင်ရည်	-11.1593
▁ဆုံမိကြ	-11.1593
▁သီးသန့်	-11.1594
ကြဦးစို့	-11.1594
ပျံ့လွင့်	-11.1594
▁ဆွစ်	-11.1594
▁ထူထောင်	-11.1594
▁အညံ့ခံ	-11.1594
▁အခိုင်အ	-11.1594
ပြီးသကာလ	-11.1594
▁အလေးချိန်	-11.1595
အဖိုးတန်	-11.1595
ဆရြာ	-11.1595
စြေ	-11.1595
▁လွန်ခဲ့သည့်	-11.1595
▁လွှထောင်	-11.1596
▁တားဆီး	-11.1596
ရောက်ရောက်ချင်း	-11.1596
ုဒ္ဒ	-11.1596
▁နွေရာသီ	-11.1596
ပြောင်ပြောင်	-11.1596
▁ြရောဂါပိုး	-11.1597
▁အရှောင်တောင်း	-11.1597
▁အရှောင်သဘော	-11.1597
ရွယ်ရွယ်	-11.1597
▁ဒေါင်း	-11.1597
▁အမှတ်မထင်	-11.1599
▁ငိုကြွေး	-11.1599
▁သောင်ပြင်	-11.1599
ထူထူ	-11.1599
▁တန်ဘိုး	-11.1599
▁မူတည်	-11.1599
▁ပုသိမ်	-11.16
▁သက်သက်နိုင်	-11.16
▁အသိဉာဏ်	-11.16
▁အကူအညီတောင်း	-11.16
▁ပဲပြုတ်	-11.16
ရသေ့ကြီ	-11.16
နှိမ့်	-11.16
▁ပြုံးပြုံး	-11.1601
▁နှုတ်ခမ်းမွေး	-11.1601
▁မအေးငြိမ်းရဲ့	-11.1602
အတောအတွင်း	-11.1603
လင်မယားနှစ်ယောက်	-11.1603
အုပ်ဆောင်း	-11.1603
လတ်လတ်	-11.1603
▁အမှန်ပင်။	-11.1604
▁သဘောမကျ	-11.1604
▁ဝိုင်းဖွဲ့	-11.1606
▁ထောင်ဒဏ်	-11.1606
▁၏ုရ	-11.1607
▁လူ့ပြည်	-11.1607
▁ပထမပုဂ္ဂိုလ်	-11.1607
▁တဲတံခါး	-11.1608
▁ရေလှိုင်း	-11.1608
▁ပေါ်မလာ	-11.1609
▁ကမ်းစပ်	-11.161
▁ရှာမတွေ့	-11.161
တိုပွါး	-11.161
▁စိတ်မကူး	-11.1611
▁အစကတည်းက	-11.1612
▁ပွင့်လင်း	-11.1612
▁ပိုပို	-11.1613
ဖုံးကွယ်	-11.1613
▁ယမ်း	-11.1613
▁သမီးပျို	-11.1614
နဲြ့	-11.1615
▁မူရင်း	-11.1615
▁ထမင်းဟင်း	-11.1615
▁ပန်းခိုင်	-11.1616
ရုပ်ရာသီ	-11.1617
ရှစ်ယောက်	-11.1619
▁မီးတောက်	-11.1622
▁ချမှတ်	-11.1622
ရည်မှန်းချက်	-11.1624
ပိုင်းခြား	-11.1624
▁မရှိကြတော့	-11.163
▁လျှောက်သွားနေ	-11.1641
ခုထက်ထိ	-11.1649
ဆန်းဆန်း	-11.165
မည်ဖြစ်ကြောင်း	-11.1661
ကြောင်နက်	-11.1663
အချုပ်	-11.1667
သီချင်းတစ်ပုဒ်	-11.1669
အနီးဆုံး	-11.1677
ဗိုလ်မှူး	-11.1678
ကျောင်းအစ်မကြီး	-11.1682
▁သည်ကနေ့ည	-11.1683
▁ဟုတ်ပါရဲ့	-11.169
ထင်ရဲ့။	-11.1691
မပြောဝံ့	-11.1702
▁ဗေဒင်ဆရာ	-11.1708
▁ချန်ထား	-11.171
▁ကြားသိရ	-11.172
မရောက်ခင်	-11.1744
ကူးသန်း	-11.1755
▁မဖြစ်နိုင်ဘူး	-11.1757
▁ဟြုတ်တယ်	-11.176
သလဲဗျာ	-11.1761
▁ဂရိတို့	-11.1762
ကျင့်ဝတ်	-11.1778
▁ဒေါ်ဒေါ်ရှိန်	-11.1781
သည်းခံ	-11.1805
အဝတ်အစား	-11.1814
ဘကွန်း	-11.1815
အဆိုတော်	-11.1816
လေ့ကျင့်	-11.1818
တစ်စုံတစ်ရာ	-11.182
တယ်ထင်တယ်	-11.1823
ခုနစ်	-11.1825
လက်ကိုဆွဲ	-11.1839
▁ဘာကြောင့်လဲဆို	-11.1853
▁တေဇ	-11.187
▁အရပ်ထဲ	-11.1879
နင်ကလဲ	-11.1887
ဝေဖန်ရေး	-11.1929
ွင်	-11.1998
▁ကုန်းပေါ်	-11.202
မလုပ်ဘူး	-11.2025
ရွှင်လန်း	-11.2081
လှုပ်လှုပ်	-11.2138
ဓိပ	-11.2144
တိန	-11.2146
▁ပစ္စ	-11.2164
သန့်သန့်	-11.226
ရောက်နေပြီ	-11.2315
ပိုဒ်	-11.2317
▁အြမေ	-11.2383
သန့်စင်	-11.2424
▁တို့ဗမာ	-11.2449
လျောက်	-11.245
လမ်းမပေါ်	-11.2473
▁ကိုးဘီး	-11.2536
▁နှံ့	-11.2574
▁ဒက်ဒီက	-11.2582
ိနတ	-11.2588
▁ငရုတ်	-11.259
▁နန်ကထိုင်	-11.2593
▁ရာပြည့်ပွဲကြီး	-11.2593
▁ဟူးရား	-11.2593
ကူးသန်းရောင်းဝယ်	-11.2593
စပ်လျဉ်း	-11.2593
ပွင့်လင်းလင်း	-11.2593
ဖြည်းညင်းစွာ	-11.2593
လောကနန္ဒာ	-11.2593
လျင်မြန်စွာ	-11.2593
သခင်္ါရ	-11.2593
အဖုံဖုံ	-11.2593
့့့့့့့့့့့့့့့့	-11.2593
▁ကြာသပတေးနေ့	-11.2593
▁ကွန်မြူနစ်	-11.2593
▁စိန်သင်းယုံ	-11.2593
▁စောဘိုးချစ်	-11.2593
▁ဇာဇီး	-11.2593
▁ဇူလိုင်	-11.2593
▁တရွေ့ရွေ့	-11.2593
▁ဗိသုကာ	-11.2593
▁ဘြုရားတပည့်တော်	-11.2593
▁မလှမ်းမကမ်း	-11.2593
▁မာန်မာန	-11.2593
▁လူထုဒေါ်အမာ	-11.2593
▁သစ်ရွက်ခြောက်	-11.2593
▁သြစတြီးယား	-11.2593
ယေဘုယျ	-11.2593
ဝါဝါဝင်းရွှေ	-11.2593
ဝီစကီ	-11.2593
▁စောဘထူး	-11.2593
▁နယ်ချဲ့	-11.2593
▁ပရိယာယ်	-11.2593
▁ဘုရင်မင်းခေါင်	-11.2593
▁မယ်ရွှေရိုး	-11.2593
▁မိုက်ကရိုဆော့ဖ်	-11.2593
▁မောင်ဗာလ	-11.2593
▁မျက်စောင်းထိုး	-11.2593
▁သမားရိုးကျ	-11.2593
▁အလုံးအရင်း	-11.2593
▁အော်ဂင်	-11.2593
ဘိသိက်	-11.2593
▁ဗိုလ်ဗြူး	-11.2593
▁အထီးကျန်	-11.2593
▁ချစ်စနိုး	-11.2593
▁ပြတင်းပေါက်	-11.2593
▁အကောင်အထည်	-11.2593
▁ဦးဘရီ	-11.2593
▁ုံလတိ	-11.2593
ပထဝီ	-11.2593
▁ကျမ်းဂန်	-11.2593
▁တောင်ငူ	-11.2593
▁မြို့အုပ်မင်း	-11.2593
▁ယုံကြည်စိတ်ချ	-11.2593
ရုပ်ပုံလွှာ	-11.2593
အိအိ	-11.2593
▁ဘာစိင	-11.2593
▁အထူးအဆန်း	-11.2593
ဝီရိယ	-11.2593
▁ဘလောက်စ်	-11.2593
▁အသုဘ	-11.2593
အမိအဖ	-11.2593
ကောင်းလှပါပြီ	-11.2593
▁ငုံ့ကြည့်	-11.2593
▁များသောအားဖြင့်	-11.2593
ထငေဟ	-11.2593
▁ကြံရာမရ	-11.2593
▁ဖြန့်ချိ	-11.2593
▁ကိုယ်ချင်းစာ	-11.2593
▁ဦးအောင်တိုး	-11.2593
မီးထွန်းပွဲ	-11.2593
▁အခန်းတွင်းမှ	-11.2593
▁ှာရဒ	-11.2593
ေးဦးပေါက်	-11.2593
ကြက်သီးထ	-11.2593
▁ရေနွေးကြမ်း	-11.2593
▁အခန့်သင့်	-11.2593
ကိုသိန်းဟန်	-11.2593
▁ဖြောင့်ဖြောင့်	-11.2593
၊ပိင်	-11.2593
▁အကဲခပ်	-11.2593
မွန်းတည့်	-11.2593
သော်ငြားလည်း	-11.2593
▁ဖယ်ရှား	-11.2593
ဒကာဒကာမ	-11.2593
▁ကျန်လူများက	-11.2593
▁ဘယ်တုန်းကမှ	-11.2593
▁ယဇ်	-11.2593
သံတမန်	-11.2593
အခွင့်အလမ်း	-11.2593
▁ပူးပေါင်း	-11.2593
▁သျှင်	-11.2593
▁ဘိလပ်	-11.2593
▁ကျယ်လောင်	-11.2593
▁အပင်ပန်းခံ	-11.2593
▁ပံ့သကူရှင်	-11.2594
▁ဆေးရွက်ကြီး	-11.2594
▁အလားတူ	-11.2594
▁ဂါတ်	-11.2594
▁မဟာပီတာ	-11.2594
▁ပြောချင်ပါတယ်။	-11.2594
▁ထမ်းရွက်	-11.2594
▁ခင်းကျင်း	-11.2594
▁စာဆိုတော်	-11.2594
▁တာဝန်ကျေပွန်	-11.2594
▁ကိုယ့်ကိုကိုယ်	-11.2594
အစစ်အမှန်	-11.2594
▁လက်နှစ်ဘက်	-11.2595
▁သူ့မျက်လုံးများ	-11.2595
▁ပါရမီ	-11.2595
▁ပူဆွေး	-11.2595
▁ဆောက်လုပ်ထား	-11.2595
▁ပုတ်သင်ညို	-11.2595
▁စိုက်စိုက်	-11.2595
▁သင့်လျော်	-11.2595
▁အိုးခွက်	-11.2596
▁စမ်းချောင်း	-11.2596
▁တုံ့ပြန်	-11.2596
▁စံပယ်	-11.2596
▁အလိုဆန္ဒ	-11.2597
▁မျက်လုံးပြူး	-11.2598
▁ဗုဒ္ဓဝါဒ	-11.2598
▁ပူလောင်	-11.2598
▁သတိမေ့	-11.2598
▁ခေတ္တခဏ	-11.2598
▁အချိန်မရွေး	-11.2598
ကန်မုချ	-11.26
စာပြန်ပွဲ	-11.26
သူကြီးဟောင်း	-11.26
▁ဂျင်း	-11.2601
▁ရင်ခုန်	-11.2601
▁ပျိုး	-11.2602
▁ဆင်ယင်	-11.2603
ပုတ်ခတ်	-11.2603
▁္ထ	-11.2604
ဖို့လိုတယ်။	-11.2604
ာနဆိုင်ရာ	-11.2605
ညှီ	-11.2605
▁လှမ်းအော်	-11.2606
လျက်ရှိကြရာ	-11.2606
ဆယ့်ငါးကျပ်တန်	-11.2606
▁စောင့်ကြည့်နေ	-11.2606
▁သူကြီးအိမ်	-11.2607
▁လုံခြုံရေး	-11.2607
▁ုံစေ	-11.2607
▁မြေးငယ်	-11.2609
▁ကမ္ဘာမြေ	-11.2609
ဘက်သို့လှည့်	-11.2613
ကောင်းမွန်မွန်	-11.2614
▁တပ်မက်	-11.2614
ဆိတ်ဆိတ်	-11.2618
လိုင်စင်	-11.2622
ယောဂ	-11.2625
▁ချစ်စရာကောင်း	-11.2638
လားမသိ။	-11.2649
အဆင့်ဆင့်	-11.2653
ပြီဗျို့	-11.2662
▁သိပ္ပံပညာ	-11.2686
▁တပ်ဆင်ထား	-11.269
အိတ်ထဲထည့်	-11.2695
ခပ်ငယ်ငယ်	-11.2701
ခုတလော	-11.2714
ရန်ကုန်တက္ကသိုလ်	-11.2749
ိစတ	-11.2788
မဆိုးပါဘူး	-11.2791
နက်ဖြန်	-11.2877
ထုံးစံအတိုင်း	-11.29
သကြင်္န်	-11.2907
ဂရုစိုက်	-11.2919
နောက်ဖေး	-11.2919
စီးကရက်ကို	-11.2921
ကုန်သည်ကြီး	-11.2922
အတန်ကြာ	-11.2922
စေတနာ	-11.2924
ကိုသိန်းမောင်	-11.2926
အာဇာနည်	-11.2927
ရွေးချယ်	-11.2928
ပါပြီဗျာ	-11.294
မရသေးဘူး	-11.2951
ဦးဦးက	-11.2968
မလုပ်ရဘူး	-11.2993
▁မသိပါဘူး	-11.3021
မတွေးတတ်	-11.314
▁သုသာန်	-11.344
▁မော်တော်	-11.3656
▁ရည်မှန်း	-11.3671
▁္တလေးမြို	-11.3694
ဉ္စ	-11.37
ကျေပွန်	-11.3702
▁ရဟန	-11.3704
ခြိမ်းခြောက်	-11.3704
ငရုတ်ကျည်ပွေ့	-11.3704
စိန်လယ်ဂျာ	-11.3704
ညှဉ်းဆဲ	-11.3704
နတေဝုရက	-11.3704
နှစ်၊ခိက်	-11.3704
ပလ္လင်	-11.3704
ပျံ့နှံ့	-11.3704
လာဘ်ပေးလာဘ်ယူ	-11.3704
အဘိဓာန်	-11.3704
အသိုက်အဝန်း	-11.3704
▁ဂျူးလယပ်ဆီဇာ	-11.3704
▁ဇန်နဝါရီ	-11.3704
▁ဒန်ပူ	-11.3704
▁ပစ်သီယက်	-11.3704
▁မက်သနော	-11.3704
▁မောင်ထွန်းဇံ	-11.3704
▁ရံရွေတော်	-11.3704
▁ဝတ်ပုံစားပုံ	-11.3704
▁သော့ခလောက်	-11.3704
▁သွက်သွက်လက်လက်	-11.3704
▁ဟာ့ဒ်ဝဲ	-11.3704
င်းကြီးစွာစော်ကဲ	-11.3704
တဘက်လပ်အသင်း	-11.3704
နစတရုငတိုန	-11.3704
ဖုံးလွှမ်း	-11.3704
ဖွန်ဒါဝေါ့	-11.3704
▁ကော်မတီ	-11.3704
▁ကြျွန်မ	-11.3704
▁ခတ္တိယ	-11.3704
▁ခရစ်ယာန်	-11.3704
▁ဂျာမဏီ	-11.3704
▁ငါနနရေ	-11.3704
▁စိုက်ပျိုး	-11.3704
▁တအံ့တသြ	-11.3704
▁ထူးထူးခြားခြား	-11.3704
▁ဒက်ဆီယပ်	-11.3704
▁ဘိန်းမှုန့်	-11.3704
▁အင်ဂျင်နီယာ	-11.3704
▁ဦးဘေကြီး	-11.3704
တရှဲရှဲ	-11.3704
မွေးဝမ်းကျောင်း	-11.3704
▁စိတ်ပျက်လက်ပျက်	-11.3704
▁မှူးကြီးမတ်	-11.3704
▁သမီးရည်းစား	-11.3704
ချမ်းမြေ့	-11.3704
▁ခပ်တည်တည်	-11.3704
▁ငထွား	-11.3704
▁အရိပ်ပြပွဲ	-11.3704
ချောမွေ့	-11.3704
ယျာဉ်	-11.3704
▁ဆရာအေးချို	-11.3704
▁မောင်လိမ်မာ	-11.3704
▁ရက္ကန်း	-11.3704
▁ရေနံဆီ	-11.3704
လျှက်	-11.3704
▁ညောင်လေးပင်	-11.3704
▁လှိုက်လှိုက်	-11.3704
အရင်းအနှီး	-11.3704
▁ကာတွန်း	-11.3704
▁ကံကြမ္မာ	-11.3704
ရှယ်ယာ	-11.3704
▁အထက်အညာ	-11.3704
▁တခဏမျှ	-11.3704
▁ခမည်းတော်	-11.3704
▁ငပလီကမ်းတွင်	-11.3704
▁သမဝါယမ	-11.3704
သဂင်္ဟ	-11.3704
▁ပထမဦးဆုံး	-11.3704
▁သောကြာနေ့	-11.3704
▁ဦးတက်တူ	-11.3704
▁စပိန်	-11.3704
▁ရိုးရိုးသားသား	-11.3704
▁အားရဝမ်းသာ	-11.3704
▁လက်အုပ်ချီ	-11.3704
▁ဦးဓားမ	-11.3704
ခြင်ငှါ	-11.3704
▁ပုတီးစိပ်	-11.3704
▁သတ္တိရှိရှိ	-11.3704
▁ဦးစက်ဘဲ	-11.3704
ဓမ္မာရုံ	-11.3704
▁မောင်ရွှေအ	-11.3704
ခေါင်းယမ်း	-11.3704
ယုယ	-11.3704
သံခြေချင်း	-11.3704
▁တောအရက်	-11.3704
▁ကွပ်ညှပ်	-11.3704
▁ချိတ်ဆွဲထား	-11.3704
▁အဖြူရောင်	-11.3704
ငွေသေတ္တာများကို	-11.3704
္ဓိ	-11.3704
▁တြစ်	-11.3704
▁တစ်ခုတည်းသော	-11.3704
အိမ်နီးချင်း	-11.3704
▁အလုပ်အကိုင်	-11.3704
▁တမာပင်	-11.3704
▁အသားအရေ	-11.3704
▁လူကြိုက်များ	-11.3704
▁မိန့်တော်မူ	-11.3705
▁လန့်နိုး	-11.3705
▁ရဟူဒီမကလေး	-11.3705
▁ခုခေတ်မှာ	-11.3705
▁ဘခင်ကြီး	-11.3705
▁ရခိုင်ပြည်နယ်	-11.3705
▁တောင့်တင်း	-11.3705
▁ထူးချွန်	-11.3705
▁ဘတ်သီး	-11.3705
▁မြွေနှစ်ကောင်	-11.3705
တင်လဲရည်	-11.3705
ရဟတ်	-11.3705
▁ပြင်းထန်စွာ	-11.3705
▁ကုန်းလှိုင်း	-11.3705
▁အသေးစိတ်	-11.3705
▁လှေကားထစ်	-11.3706
ဆိုပါစို့	-11.3706
▁အတုမရှိ	-11.3706
▁ငြိမ်သက်စွာ	-11.3706
▁ခုံမင်	-11.3706
▁ထို့အတူ	-11.3706
▁စွန့်ရဲ	-11.3707
▁မဂင်္လာဒုံ	-11.3707
ဘိနပ်	-11.3707
ဒရမ်	-11.3707
▁မြားတံ	-11.3707
▁နီးစပ်	-11.3707
▁ရစ်ပတ်	-11.3707
▁သန်မာ	-11.3707
အဂတိ	-11.3707
အစွမ်းအစ	-11.3708
▁ဒီအတိုင်းပဲ	-11.3708
၊မိက်	-11.3709
သွယ်သွယ်	-11.3709
▁စိတ်မချမ်းသာ	-11.371
ိညေ	-11.371
▁ဘိုးခက်	-11.371
ဦးသာပေး၏	-11.371
▁မယုသ	-11.3711
▁သရော်	-11.3711
သွန်ပစ်	-11.3713
▁မသောင်း	-11.3713
ပါပေဘဲ	-11.3714
▁ပြိုင်ဘက်	-11.3714
ဖြည်	-11.3714
နေပစေ	-11.3715
▁လူနေမှု	-11.3716
သွားမလို့လဲ	-11.3717
ာတုရေ	-11.3719
စင်းစင်း	-11.372
▁တေးသံ	-11.372
ရတနာသုံးပါး	-11.3724
အစ်ကို့ကို	-11.3726
▁သင့်အနေ	-11.3727
ညင်သာ	-11.373
နှံ့စပ်	-11.373
▁ကြည့်လို့ကောင်း	-11.3732
▁အလေးထား	-11.3733
ခက်ထန်	-11.3738
▁မုဆိုး	-11.3755
ကိုက်ညီ	-11.3764
▁အချက်အလက်များ	-11.3768
သည်လိုပါခင်ဗျာ	-11.3769
▁နေရစ်ခဲ့	-11.377
ပီးသည့်နောက်	-11.3774
မအိပ်သေး	-11.3791
▁ဘာလုပ်ရမှန်း	-11.3792
▁အချက်အလက်တွေ	-11.3792
မထွက်နိုင်	-11.381
တဲ့အချက်ကလေး	-11.382
ရှစ်ဆယ်	-11.3837
လှည့်မကြည့်	-11.3838
လိုပြောလိုက်တော့	-11.3845
ပါတယ်ခင်ဗျား။	-11.3857
▁လရောင်အောက်	-11.3863
ကွန်ရက်	-11.3873
့း့	-11.3874
ရှေးရှု	-11.3918
▁စုံစုံ	-11.3942
ပါတော့ကွာ	-11.3981
ီယန်	-11.4037
အခွန်	-11.4071
▁လိမ်လည်	-11.4071
ခြင်	-11.4144
ကြည်နူးမှု	-11.4152
ပါဘဲဗျာ	-11.4162
အခက်အခဲ	-11.4169
လက်ဖက်ရည်	-11.4176
လျှပ်စစ်မီး	-11.4229
ပစ္စယ	-11.423
ပုသ်နေ့	-11.4246
မိမိတို့၏	-11.4247
▁ညှိနှိုင်း	-11.431
▁ရူးသွပ်	-11.4391
ပြုံးရယ်လျက်	-11.4501
ခွင့်ပြုပါ	-11.4548
▁ကိုယ်ပိုင်သံစဉ်	-11.4594
▁ဆွစ်ဇာလန်	-11.4665
ဝတ်ဆင်ထား	-11.4699
ဂွမ်းပုံ	-11.4876
▁အကုသိုလ	-11.4954
ရွက်ပုန်းသီး	-11.4954
လောကုတ္တရာ	-11.4954
▁တစ်ရံရောအခါ	-11.4954
▁ပုန်းညက်ပင်	-11.4954
ပြန့ပွါး	-11.4954
ယဉ်နွယ်ဦး	-11.4954
ရင်းရင်းနှီးနှီး	-11.4954
▁ခင်မင်ရင်းနှီး	-11.4954
▁ခရစ္စမတ်	-11.4954
▁ခွပ်ဒေါင်း	-11.4954
▁စောဖိုးချစ်	-11.4954
▁ဆယ်ကျော်သက်	-11.4954
▁ဆိုဗီယက်	-11.4954
▁နိုင်းကြာရွာ	-11.4954
▁ပင်လယ်ကမ်းစပ်	-11.4954
▁ဘိုးပေါက်ဆိန်	-11.4954
▁ဘီပီအိုင်	-11.4954
▁မရဲတရဲ	-11.4954
▁သိသိသာသာ	-11.4954
▁အထုပ်အပိုး	-11.4954
▁အနည်းအကျဉ်း	-11.4954
▁အယ်လဆက်စတစ်	-11.4954
စင်းလျင်း	-11.4954
ညစ်ညမ်း	-11.4954
ဖြားယောင်း	-11.4954
ဟသင်္ာမင်းပျို့	-11.4954
့င်္ံ့ဆင	-11.4954
▁ကက်သရင်း	-11.4954
▁ကုန်ကျစရိတ်	-11.4954
▁ကြံကြံဖန်ဖန်	-11.4954
▁စက်မှုနည်းပညာ	-11.4954
▁စီမံခန့်ခွဲ	-11.4954
▁ဆငိနေငေ	-11.4954
▁ထင်ထင်ရှားရှား	-11.4954
▁ဓာတုဗေဒ	-11.4954
▁ပြည့်နှက်	-11.4954
▁ဘိုးဘွား	-11.4954
▁မင်းရဲကျော်စွာ	-11.4954
▁မလွဲမသွေ	-11.4954
▁မောင်အုံးဘေ	-11.4954
▁မြှုံး	-11.4954
▁ရာဇာဓိရာဇ်	-11.4954
▁ရောင်ခြည်	-11.4954
▁လွန်ဝမ်	-11.4954
▁သူကြွယ်မကြီး	-11.4954
▁အစစအရာရာ	-11.4954
▁အလျင်အမြန်	-11.4954
▁ောငဟ	-11.4954
▁ံယာနမာရ	-11.4954
▁ှာရဝါရေ	-11.4954
ကျန်းကျန်းမာမာ	-11.4954
ဘွယ်	-11.4954
သရဏဂုံ	-11.4954
အသင့်အတင့်	-11.4954
▁ခေါင်းငုံ့	-11.4954
▁ဂေါတမ	-11.4954
▁စက်မှုတက္ကသိုလ်	-11.4954
▁စားပွဲတင်မီး	-11.4954
▁စိုးသီတာဝေ	-11.4954
▁စုစုပေါင်း	-11.4954
▁မှတ်စုစာအုပ်	-11.4954
▁လူကိုးယောက်	-11.4954
▁ဇွတ်အတင်း	-11.4954
▁တူကိုင်ပညာ	-11.4954
▁မေတ္တာရပ်ခံ	-11.4954
ဖားဖား	-11.4954
▁ကျောင်းပိတ်ရက်	-11.4954
▁ထိုနည်းတူစွာ	-11.4954
▁နာရီအချိန်ခန့်	-11.4954
▁မဂ္ဂင်	-11.4954
▁ရပ်သူရွာသား	-11.4954
ပါလိမ့်မလဲလို့	-11.4954
▁လက်ပတ်နာရီ	-11.4954
▁နေရာထိုင်ခင်း	-11.4954
▁နှစ်သိမ့်	-11.4954
▁ဒါ့အပြင်	-11.4954
▁ဝမ်းဘဲကျောင်း	-11.4954
နက်ရှိုင်း	-11.4954
▁တြို့	-11.4954
▁ဓာဝ	-11.4954
ခိုင်ခံ့	-11.4954
▁စူးစိုက်ကြည့်	-11.4954
ကြံ့ခိုင်	-11.4954
▁ငါးပါးသီလ	-11.4954
▁ဝိုင်းအုံ	-11.4954
▁ဆော့ကစား	-11.4954
နာကျည်း	-11.4954
▁ဖြည့်ဖြူး	-11.4954
▁သူတော်သူမြတ်	-11.4954
တြွေ	-11.4954
▁မောင်အောင်မြ	-11.4954
▁ဖြည့်ဆည်း	-11.4954
▁အပြည့်အဝ	-11.4954
▁စိတ်နှလုံး	-11.4954
▁နောက်ယောင်ခံ	-11.4954
▁သည်ဘက်ခန်း	-11.4954
▁သြကာသ	-11.4954
▁ခွင့်၊ပ	-11.4954
▁အတန်တန်	-11.4954
အသျှင်	-11.4954
သက်တော်စောင့်	-11.4954
▁ကြွေးကြော်	-11.4954
▁စတုတ္ထ	-11.4954
အယူသည်း	-11.4954
▁လက်ပံ	-11.4954
လဲလှယ်	-11.4955
▁အမြင့်ဆုံး	-11.4955
ချွေတာ	-11.4955
▁ရေနွေးအိုး	-11.4955
သောအမူအရာနှင့်	-11.4955
▁မာလကာ	-11.4955
မဆည်	-11.4955
▁ဇာဘုရင်	-11.4955
▁ရူပံ	-11.4955
▁ကြိတ်ဆုံ	-11.4955
▁အနိုင်ကျင့်	-11.4955
▁ဂျင်နီ	-11.4955
▁ထိုသတင်းကို	-11.4955
▁အစွမ်းကုန်	-11.4955
▁၊ကိတင်	-11.4955
▁ရေတကောင်း	-11.4955
▁ငပလီကမ်းခြေ	-11.4955
▁ကရင်ပြည်နယ်	-11.4955
▁လှေသူကြီး	-11.4956
လက်ဖမိုး	-11.4956
▁ခိုင်မြဲ	-11.4956
▁ဘယ်နည်းနှင့်	-11.4956
ဖြာဖြာ	-11.4956
▁သည်းထန်	-11.4956
▁ကွက်လပ်	-11.4956
▁ဖောက်ထွင်း	-11.4956
နင်ရို့	-11.4956
ထိုင်ချလိုက်သည်။	-11.4956
ရှူရှိုက်	-11.4956
▁ရည်စူး	-11.4956
▁ှုပရောတ	-11.4956
▁တို့လူမျိုးတွေ	-11.4956
အယူဝါဒ	-11.4956
▁မိန့်ကြား	-11.4956
▁ရဟန်းတော်များ	-11.4957
▁ဆင်ဖြူကြီးရဲ့	-11.4957
▁လောကသာရ	-11.4957
▁နှမ်း	-11.4957
▁ကြေးနန်း	-11.4957
▁ပြိုင်တူ	-11.4957
▁ခွင့်တောင်း	-11.4957
ကြကုန်၏။	-11.4957
ပုံမပေါ်	-11.4957
▁လီဒါ	-11.4958
▁လူမမယ်	-11.4958
▁အပါယ်	-11.496
ရှေးရှေးတုန်းက	-11.496
▁အမဲလိုက်	-11.4962
ပေါင်းသင်းဆက်ဆံ	-11.4967
ဆရာရေ့	-11.4968
မှတ်ချက်ချ	-11.497
ရောက်သွားတော့	-11.4974
▁ကြားလိုက်ရတယ်	-11.4974
အစိတ်သား	-11.4981
ဘုံဘိုင်မြို့	-11.4985
အကြီးကောင်	-11.4988
မားမား	-11.4988
မထိန်းနိုင်	-11.4992
▁ဖရိန	-11.4993
ခွန်အ	-11.5019
▁မပြောပါနဲ့	-11.5031
▁ပျင်းစရာ	-11.504
ုပ်ကြံမည့်သူများ	-11.5046
ုဝရေ	-11.5049
ဦးပဉ္စင်းကြီး	-11.5083
ခွင့်ပြုချက်	-11.5085
ညစ်ညစ်	-11.5143
▁ကြည်ကြည်	-11.5175
ုဝန	-11.518
ငြိမ်သွား	-11.524
ျွန်တော်၏မိတ်ဆွေ	-11.5266
▁ဆွမ်းဘုဉ်း	-11.553
ထိတ်လန့်	-11.5597
ဒါရိုက်တာ	-11.56
အဘိဓမ္မာ	-11.5615
အင်းစိန်လမ်း	-11.5669
ဒေါ်မြက	-11.5784
▁ဦးခင်မောင်	-11.5916
▁ပေးရတယ်	-11.5993
▁သောင်အချိုး	-11.6128
▁မန်ကျည်း	-11.6172
▁တည်ငြိမ်	-11.6282
▁ဆယ့်ငါးကျပ်	-11.6363
မွှာ	-11.6365
တို့သားအမိ	-11.6378
▁ရုရှ	-11.6382
နိဂုံး	-11.6382
ဆယ့်ကိုး	-11.6382
▁တကူးတက	-11.6382
▁ဘီအိုင်အေ	-11.6382
▁လက်သုတ်ပဝါ	-11.6382
ပဏ္ဏဝ	-11.6382
မြောက်မြားစွာ	-11.6382
ရှိုက်ကြီးတငင်	-11.6382
▁ပဝါရဏာပြု	-11.6382
▁ပုရောဟိတ	-11.6382
▁လုလင်ပျို	-11.6382
▁သဲပွင့်လေးများ	-11.6382
ပျော့ပျောင်း	-11.6382
ပြီဆိုမှဖြင့်	-11.6382
မြသန်းတင့်	-11.6382
ရှမ်ပုဝါ	-11.6382
သဲ့သဲ့	-11.6382
အစီရင်ခံစာ	-11.6382
▁ခပ်သုတ်သုတ်	-11.6382
▁ချောက်လှန့်	-11.6382
▁ခြိမ်းချောက်	-11.6382
▁ဂျိမ်း	-11.6382
▁စိတ်ရှည်လက်ရှည်	-11.6382
▁တစ်ဝက်တစ်ပျက်	-11.6382
▁တီအီးလောရင့်	-11.6382
▁ဓမ္မာစရိယ	-11.6382
▁ပထမအလံ	-11.6382
▁ပါဏာတိပါတ	-11.6382
▁ပါရှန်များ	-11.6382
▁ဖရုငစေစုရ	-11.6382
▁ဖျတ်ခနဲ	-11.6382
▁ဖွားစိန်ပွင့်	-11.6382
▁ဘွားဘွား	-11.6382
▁မက်ကင်းတော့ရှ်	-11.6382
▁မန်းလီယပ်	-11.6382
▁မောင်ဘေတင်	-11.6382
▁မြည်ဟည်း	-11.6382
▁မှန်မှန်ကန်ကန်	-11.6382
▁ယူကြုံးမရ	-11.6382
▁ရိုရိုသေသေ	-11.6382
▁လက်ဆည်ကန်	-11.6382
▁သာမဏေ	-11.6382
▁သံလှောင်အိမ်	-11.6382
▁ဟက်ဟက်ပက်	-11.6382
▁အစည်းအဝေး	-11.6382
▁အမှီပြုပြီး	-11.6382
▁အားပါးတရ	-11.6382
▁အုစတရာလ	-11.6382
▁္အ့္အ့္အ့္အ့္အ့	-11.6382
တဖျပ်ဖျပ်	-11.6382
ဓူဝံ	-11.6382
သရက်သီးသနပ်	-11.6382
▁ကော်ရင်ဂျီ	-11.6382
▁ခင်မောင်လပ်	-11.6382
▁ခပ်ကြမ်းကြမ်း	-11.6382
▁ခြိမ်းမောင်း	-11.6382
▁ဆိုးသွမ်း	-11.6382
▁တက်တက်ကြွကြွ	-11.6382
▁နန်းမြအေး	-11.6382
▁မတ်တပ်ရပ်	-11.6382
▁မုံ့ပျားသလက်	-11.6382
▁မျှစ်ဟင်း	-11.6382
▁မြဲမြံစွာ	-11.6382
▁မှေးမှိန်	-11.6382
▁ရာဇဝတ်မှု	-11.6382
▁ရေစကြိုဆရာတော်	-11.6382
▁ရွှေတိဂုံ	-11.6382
▁လျစ်လျူရှု	-11.6382
▁လျှင်မြန်စွာ	-11.6382
▁သာသနာ့ဘောင်	-11.6382
▁သေနာပတိ	-11.6382
▁သဲသဲမဲမဲ	-11.6382
ထိုင်းမှိုင်း	-11.6382
သဂြင်္ိုဟ်	-11.6382
▁ကိုထိန်ဝင်း	-11.6382
▁စွန့ခွါ	-11.6382
▁ထိုးဝါးဇော်ဂျီ	-11.6382
▁ပဓာန	-11.6382
▁ပါရှန်း	-11.6382
▁မပျက်မကွက်	-11.6382
▁မဲဆွယ်	-11.6382
▁ရှုတ်ချ	-11.6382
▁သစ်ကြားသီး	-11.6382
▁အလွန့်	-11.6382
▁အဝင်အထွက်	-11.6382
▁အသူရိန်	-11.6382
ပျံလွန်တော်မူ	-11.6382
ယူဘီအေ	-11.6382
▁ကျောက်ဖျာ	-11.6382
▁နားလည်သဘောပေါက်	-11.6382
▁ပူနွေး	-11.6382
▁ပျော်မွေ့	-11.6382
▁ဗုဒ္ဓဟူးနေ့	-11.6382
ညွှတ်	-11.6382
ဓင်္ံဆ	-11.6382
ဘွဲ့တံဆိပ်တော်	-11.6382
မီးရှို့	-11.6382
လေယာဉ်ဓားပြ	-11.6382
▁ဒေါသအမျက်	-11.6382
▁နာရီပြန်တစ်ချက်	-11.6382
▁ပူတာအို	-11.6382
▁သက်သက်သာသာ	-11.6382
▁အချည်းနှီး	-11.6382
▁အပူရှိန်	-11.6382
▁ကဆုန်	-11.6382
▁ခပ်ရိုးရိုး	-11.6382
▁နှင်ထုတ်လိုက်	-11.6383
▁ဗျိုင်းတောင်ရွာ	-11.6383
▁အများပြည်သူ	-11.6383
▁လက်ဝှေ့ရေးပြ	-11.6383
▁အရပ်အမောင်း	-11.6383
▁မောင်မောင်ခ	-11.6383
▁လေညင်း	-11.6383
ကာလပတ်လုံး	-11.6383
▁အြဲဒီ	-11.6383
▁အလုပ်လက်မဲ့	-11.6383
အမွေအနှစ်	-11.6383
▁မျက်စိတစ်ဆုံး	-11.6383
တိုးချဲ့	-11.6383
လောကဓံ	-11.6383
▁တစ်ဦးနှင့်တစ်ဦး	-11.6383
▁အားနည်းချက်	-11.6383
▁ကွပ်ပျစ်	-11.6383
▁နှေးကွေး	-11.6383
▁သက်ပြင်းချ	-11.6383
စုံမှိတ်	-11.6383
မောင်ဘထွန်း	-11.6383
▁တိုင်းရင်းသား	-11.6383
▁မောင်အောင်ပွင့်	-11.6383
▁မညှာ	-11.6383
▁ခုနင်က	-11.6383
▁ဦးသာပေါ	-11.6383
▁ဆီး၊ကိ	-11.6383
▁ဆိုရပါမယ်။	-11.6383
▁ဆရာဆရာမတွေ	-11.6383
ရာစုနှစ်	-11.6383
နာမည်ကျော်ကြား	-11.6383
▁အလွယ်ဆုံး	-11.6383
ဒီဂရီ	-11.6383
ဒီဇိုင်း	-11.6383
▁စိတ်တိုင်းကျ	-11.6383
တ္တမလမ်း	-11.6383
▁စကားစပ်မိ	-11.6383
▁ဝိတဟ	-11.6383
မိုးကာအကျင်္ီ	-11.6383
ဘောင်းဘီတိုလေး	-11.6383
အရေးကြီးတဲ့အချက်	-11.6383
▁အလွန်အမင်း	-11.6383
ကွန်ပျူတာနည်းပညာ	-11.6383
တယ်မဟုတ်ဘူးလား	-11.6383
ောင်လှောင်	-11.6383
▁မိန်းမပျိုကလေး	-11.6383
▁စူးစူး	-11.6383
▁အာကာသ	-11.6383
▁ချယ်ရီမဂ္ဂဇင်း	-11.6383
▁ဝန်မလေး	-11.6383
▁အလေးအနက်	-11.6384
ဖလှယ်	-11.6384
သော့ခတ်	-11.6384
▁အပိုင်စီး	-11.6384
▁မတ်မတ်ရပ်	-11.6384
▁တစ်ခုနဲ့တစ်ခု	-11.6384
▁အားမနာ	-11.6384
▁စိန်ပန်းရပ်	-11.6384
▁အစိတ်စိတ်	-11.6384
ကြစေလော့။	-11.6384
▁သီဟို	-11.6384
▁တစ်လောကလုံး	-11.6384
▁လွယ်အိတ်ကို	-11.6385
▁လှုပ်ရှားသွားလာ	-11.6385
ပါမည်လား။	-11.6385
▁သတို့သား	-11.6385
ဝှန်	-11.6385
ကော်ရော်	-11.6385
အတတ်နိုင်ဆုံး	-11.6385
အချင်းအရာ	-11.6385
တစ်မြို့လုံး	-11.6385
မင်းတုန်းမင်း	-11.6386
ပုသ်သည်တို့	-11.6386
▁စွန့်လွှတ်	-11.6386
ခုက္ကူစာချနည်း	-11.6387
▁အမိုးကြီးဆီ	-11.6387
ဘာတစ်ခုမျှ	-11.6387
ပရုငစေစုရ	-11.6387
▁မြို့စားကြီး	-11.6388
▁ိံန	-11.6388
▁ွှိန	-11.639
နိသျှ	-11.6393
ိန္န	-11.6395
▁တွေဝေနေ	-11.6397
သေးသေးကလေး	-11.6399
မပြောတတ်ပါဘူး	-11.6405
ုညေ	-11.6406
မီးညှိပြီး	-11.6417
ိနစေ	-11.6422
ငှက်ပျောသီး	-11.644
▁တယော	-11.6449
မဂွမ်းပုံက	-11.6473
အမေရိကန်နိုင်ငံ	-11.6481
အာမခံချက်	-11.6493
ခုတစ်လော	-11.6517
အရောင်းဆိုင်	-11.6525
ာပန	-11.6543
းနီးယား	-11.6591
တစ်သက်တာ	-11.6665
တကောက်ကောက်လိုက်	-11.687
▁အထူးတလ	-11.6923
အဝဝက	-11.6992
စ်ကိုစောရန်နိုင်	-11.7145
▁စိတ်မချမ်းမသာ	-11.7184
အော်ဟစ်	-11.7259
ဂါထာ	-11.7263
သဒ္ဒါ	-11.7265
တိုက်တွန်း	-11.7267
အခွင့်အရေး	-11.7267
သကင်္န်း	-11.7268
အကူအညီ	-11.7268
မောင်ဘိုးဆန်း	-11.7273
သေသေချာချာ	-11.7275
လိုက်ပို့မယ်	-11.7469
▁တကောက်ကောက်	-11.7502
အဲဒီနေ့က	-11.7602
ွဲ့နွဲ့	-11.765
ခြိုက်	-11.8015
ဖြောင့်စင်း	-11.8025
ဘုန်းကြီ	-11.8032
▁နက္ခတ်	-11.8034
▁ပြူတင်း	-11.8044
ကျီးကန်း	-11.8049
ခေါဘဏီ	-11.8049
သမ္ဗုဒ္ဓ	-11.8049
▁ကြျွန်တော့်	-11.8049
ဂေါ်ဖီ	-11.8049
တောင်ဝှေး	-11.8049
ပျမ်းမျှ	-11.8049
သံချောင်းခေါက်သံ	-11.8049
▁ကိုမောင်မောင်ဦး	-11.8049
▁ကောက်ညှင်းထုပ်	-11.8049
▁ခွေးအူသံ	-11.8049
▁စပ်မိစပ်ရာ	-11.8049
▁စွဲစွဲမြဲမြဲ	-11.8049
▁ဆင်းဆင်းရဲရဲ	-11.8049
▁ဇွဲကပင်တောင်ခြေ	-11.8049
▁ဉာဏဗလ	-11.8049
▁တပျော်တပါး	-11.8049
▁တဝေါဝေါ	-11.8049
▁နက်နဲစွာ	-11.8049
▁နန္ဒမူ	-11.8049
▁ပလပ်စတစ်	-11.8049
▁ပူမှုအေးမှု	-11.8049
▁ပဲခူးမြို့	-11.8049
▁ဖေဖော်ဝါရီ	-11.8049
▁မြင်းရှင်မနာဂျီ	-11.8049
▁လတ်ဆတ်	-11.8049
▁လယ်တီဆရာတော်	-11.8049
▁အတားအဆီး	-11.8049
▁အန်တစ်ဂိုနီ	-11.8049
▁အပြုအမူတွေ	-11.8049
▁အလန့်တကြား	-11.8049
▁ဦးပန်းကျော်အေး	-11.8049
ငြီးငြူ	-11.8049
စေကတုပ	-11.8049
တရိုတသေ	-11.8049
တီတူးခါးခါး	-11.8049
ဒွါဒ	-11.8049
နုဂ္ဂဟ	-11.8049
နွယ်နွယ်ဦး	-11.8049
ပန်းဆိုးတန်းလမ်း	-11.8049
ဘောဂဗေဒ	-11.8049
မထေရ်	-11.8049
ရွှဲရွှဲ	-11.8049
ရှစ်ပါးသီလ	-11.8049
လက်စွပ်တစ်ကွင်း	-11.8049
လဲ့လဲ့	-11.8049
သလားမမေးနဲ့	-11.8049
အဂ္ဂိရတ်	-11.8049
အညစ်အကြေး	-11.8049
အမြတ်တနိုး	-11.8049
အမှားအယွင်း	-11.8049
▁ကုလသမဂ္ဂ	-11.8049
▁ကြိုးစားပမ်းစား	-11.8049
▁ခင်မောင်လွင်	-11.8049
▁ချို့ယွင်း	-11.8049
▁ခြလောက်နို့	-11.8049
▁ဂုလဒစမိတဟ	-11.8049
▁ငုတ်တုတ်	-11.8049
▁င်္ံနေတရေ	-11.8049
▁ညရေစိုန	-11.8049
▁တစ်ရာ့ငါးဆယ်	-11.8049
▁တဝုန်းဝုန်း	-11.8049
▁ပစ္စုပ္ပန	-11.8049
▁ပရမီသွာ	-11.8049
▁ပိတောက်ပန်း	-11.8049
▁ဘတ်စကက်ဘော	-11.8049
▁မျက်မှောင်ကြုတ်	-11.8049
▁မြားနတ်မောင်	-11.8049
▁မြောက်ခြမ်းသား	-11.8049
▁မြှားနတ်မောင်	-11.8049
▁ယတြာချေ	-11.8049
▁ရာဇဝတ်ကောင်	-11.8049
▁ရာဇဝတ်ဝန်ကြီး	-11.8049
▁ရုတ်ရုတ်သဲသဲ	-11.8049
▁လက်ကိုင်ပုဝါ	-11.8049
▁လက်ဝတ်ရတနာ	-11.8049
▁သက်ပြင်းတစ်ချက်	-11.8049
▁သည်မိန့်ခွန်း	-11.8049
▁သန္န	-11.8049
▁သူ့လင်တော်မောင်	-11.8049
▁အခိုးအငွေ့	-11.8049
▁အီတလီ	-11.8049
▁အေမင်နိုဖစ်	-11.8049
ကုက္ကိုပင်	-11.8049
မွတ်မွတ်	-11.8049
မှိန်မှိန်	-11.8049
ရှယ်ရာတွေ	-11.8049
ဝှါ	-11.8049
▁ကိုယ်ကျင့်တရား	-11.8049
▁ကျွဲဒုံး	-11.8049
▁ကွဲပြားခြားနား	-11.8049
▁ခပ်ရှင်းရှင်း	-11.8049
▁ချမ်းသာစီပွါး	-11.8049
▁ခွေးသေကောင်	-11.8049
▁စိတ်ပါလက်ပါ	-11.8049
▁စိုးရိမ်ပူပန်	-11.8049
▁ဆော်သြ	-11.8049
▁တြပည့်တော်	-11.8049
▁နှာခေါင်းရှုံ့	-11.8049
▁ပါတိတ်လုံချည်	-11.8049
▁ဖြစ်လင့်ကစား	-11.8049
▁ဘေ့စ်	-11.8049
▁ဘ့ဆင	-11.8049
▁မြင်းကျင့်သမား	-11.8049
▁ရေနန်းဘုရင်	-11.8049
▁လိုက်လျော	-11.8049
▁လောကဓာတ်ကျောင်း	-11.8049
▁သကင်္ာမကင်း	-11.8049
▁သံလွင်မြစ်	-11.8049
▁အစီအမံ	-11.8049
▁အသိအမှတ်၊ပ	-11.8049
ဒ္ဒန	-11.8049
▁ဆိုက်ဆိုက်	-11.8049
▁ဒေါ်စိန်လှ	-11.8049
▁ဘယ့်နှယ်ထင်သလဲ	-11.8049
▁ဘောက်စ်	-11.8049
▁မေးငေါ့	-11.8049
▁အစဉ်တစိုက်	-11.8049
▁အလုံးစုံကို	-11.8049
▁အလျဉ်း	-11.8049
မြွှာ	-11.8049
အုန်းမှုတ်ပဲ့	-11.8049
▁ကိုဖိုးခက်	-11.8049
▁ဆင်ဖြူရှင်	-11.8049
▁ထူးထူးဆန်းဆန်း	-11.8049
▁ပြည့်ရှင်မင်း	-11.8049
▁ရေခဲခြစ်သည်	-11.8049
▁လက်ငါးချောင်း	-11.8049
▁္တရာဇာတ်	-11.8049
စိုးရွံ့စိတ်က	-11.8049
သိဒ္ဓိ	-11.8049
▁ကျသင့်ငွေ	-11.8049
▁မထင်မရှား	-11.8049
▁ရွေးကောက်ပွဲ	-11.8049
▁ဟန်ချက်ညီ	-11.8049
▁အညောင်းပြေ	-11.8049
▁အတွင်းရေးမှူး	-11.8049
▁အြရှင်ဘုရား	-11.8049
▁ငတက်ပြား	-11.8049
▁စက်တင်ဘာ	-11.8049
▁ပြေလည်အောင်	-11.8049
▁သူ့ခန္ဓာကိုယ်	-11.8049
▁အယ်လ်	-11.8049
မာန်မပြင်း	-11.8049
▁သည်းမခံနိုင်	-11.8049
▁သွန်သင်	-11.8049
▁ဆိုင်တဲ့အရေး	-11.8049
▁ယိမ်းယိုင်	-11.8049
▁ကိုဖိုးအေး	-11.8049
▁ကျီးကန်းမည်း	-11.8049
▁ပညတ်	-11.8049
▁ပညပ်	-11.8049
▁မြို့ပြနိုင်ငံ	-11.8049
လိမ့်ဦးမည်။	-11.8049
ဝေငှ	-11.8049
ဟိုးဟိုး	-11.8049
▁အစဉ်အဆက်	-11.8049
▁လေပွေ	-11.8049
▁ဖုလယ	-11.8049
ဓနုဖြူ	-11.8049
▁စေ့စေ့ကြည့်	-11.8049
▁လှံနဲ့ထိုး	-11.8049
▁အဒေါ့်	-11.8049
ဆွဲ၊ကိး	-11.8049
▁အိပ်ရေးပျက်	-11.8049
▁အြဲဒါ	-11.8049
ကျက်အောင်ကြော်	-11.8049
ရကျိုးနပ်	-11.8049
▁ဘလုတ်	-11.8049
▁အလွဲလွဲ	-11.8049
ယဇု	-11.8049
▁နိဂုံးချုပ်	-11.8049
ဗုဒ္ဓမြတ်စွာ	-11.8049
▁နေထွန်းဦး	-11.8049
▁ပေါင်မုန့်	-11.8049
▁မောင်လိမ္မာကလေး	-11.8049
▁သတို့သမီး	-11.8049
▁အတုခိုး	-11.8049
▁အမြဲတစေ	-11.8049
ဝြါ	-11.8049
နှစ်သစ်ကူး	-11.8049
ကျော်ကျော်ရို့	-11.8049
ုရလဒ	-11.8049
▁မနားမနေ	-11.8049
ရှိခိုးကန်တော့	-11.8049
▁ကိုသက်ဦး	-11.8049
▁ကေသရာ	-11.8049
▁လိပ်ရုပ်ကြီး	-11.805
တစ်ဖုံ	-11.805
သတ္တု	-11.805
▁လက်ဝှေ့ကျော်တွေ	-11.805
▁လယ်ကွင်းတွေ	-11.805
▁လေလွင့်နေ	-11.805
ကျုံ့	-11.805
ဗြစ်	-11.805
ငွေတစ်ဆယ်	-11.805
▁တိုက်ပုံအကျင်္ီ	-11.805
စာရွက်စုတ်ကလေး	-11.805
▁နေရထိုင်ရ	-11.8051
ကြည့်မြင်တိုင်	-11.8051
▁တစ်ခါတစ်လေ	-11.8051
လူထွား	-11.8051
▁ဝါသနာရှင်တွေ	-11.8051
▁အလုပ်မလုပ်နိုင်	-11.8051
▁အငတိည	-11.8052
မောင်မင်းကြီးသား	-11.8052
အရေခွံ	-11.8052
အဖိတ်နေ့	-11.8052
▁ကြာလှပြီ	-11.8053
▁အမှာစာအ	-11.8053
ကျွန်မရို့	-11.8055
▁ကြီးပြင်းလာ	-11.8056
ုဒို	-11.8057
စာဖတ်ပရိသတ်	-11.8059
မုန့်ဟင်းခါးသည်က	-11.8059
စပြုနေပြီ	-11.8062
▁ရေစိုနေ	-11.8063
လှချည်လား	-11.8066
တိတ်ဆိတ်ငြိမ်သက်	-11.8078
ငေးကြည့်နေမိသည်။	-11.808
သည်းသည်း	-11.8083
ဗန်းထဲ	-11.8084
အဆက်မပြတ်	-11.8089
ဒီကိစ္စနဲ့ပတ်သက်	-11.8091
သေချာစွာကြည့်ရှု	-11.8103
ရင်ခွင်ထဲ	-11.814
ဘယ့်နှယ်ပြောသလဲ	-11.8191
ရာဝါသ	-11.8225
င်သည့်အတိုင်းပင်	-11.8247
ရာဇဝတ်သ	-11.8253
သားအမိနှစ်ယောက်	-11.8271
ယနေ့အထိ	-11.8297
ဗမာလူမျိုးတွေ	-11.8303
န္ဓာ	-11.8519
▁တောရွာတစ်ရွာ	-11.8573
ကိုသိန်းဆွေက	-11.858
အပေါင်းအသင်းများ	-11.866
သီအိုရီတွေ	-11.8998
မွေးဖွားလာ	-11.9038
မိုချယ်က	-11.9118
သူပုန်များ	-11.9188
ဂရုမစိုက်	-11.9266
င်္ုံမပုတရေ	-11.9268
ပြည်သူလူထု	-11.9274
ုဒ္ဓါ	-11.9419
ိုဒင်း	-11.9445
▁ဘန်ဂလို	-11.9732
ညှဉ်းပန်း	-11.9898
▁ပရိယတ္တိသာသန	-11.9961
▁ဘုံဘိုင်	-11.9998
▁ပီတာစဘတ်	-11.9999
▁နိသျ	-12.0034
▁အင်စပိတ်	-12.0037
ယစတမေ	-12.0046
ပိန္န္နဲ	-12.0048
▁နီးနီးကပ်ကပ်	-12.0049
▁ဒေါ်ဒေါ့်	-12.0049
▁ပွက်ပွက်ဆူ	-12.0049
▁ဘူးသီးခြောက်ခွံ	-12.0049
ကွန့်မြူး	-12.0049
ချန်ပီယံ	-12.0049
ချော့မော့	-12.0049
မန်မာ့အသံ	-12.0049
မြိုက်မြိုက်	-12.0049
▁ကန်စွန်းရွက်	-12.0049
▁ဖော့ရှန်	-12.0049
▁ဖြူဖတ်ဖြူရော်	-12.0049
▁မာကေးဒိုး	-12.0049
▁မျက်တောင်မခတ်	-12.0049
▁လူးဇန်း	-12.0049
▁ဝဏ္ဏပဟာ	-12.0049
▁သာမိုပီလေး	-12.0049
▁အစီအရီ	-12.0049
▁အသိအကျွမ်းဖွဲ့	-12.0049
▁အိုးခြစ်တိုက်	-12.0049
ကထာနိသျ	-12.0049
ကပျာကရာ	-12.0049
ကရိုဏ်း	-12.0049
ကိုင်းရှိုင်း	-12.0049
ခပ်ပြုံးပြုံး	-12.0049
ခေါင်းငိုက်စိုက်	-12.0049
ဂိုဒေါင်	-12.0049
စွန့်စွန့်စားစား	-12.0049
ဆိုက်ဘီးရီးယား	-12.0049
ဆီချက်ခေါက်ဆွဲ	-12.0049
ညက်ညက်	-12.0049
တည်ရာမှီရာကြီး	-12.0049
ထပ်ခိုးကျဉ်းကလေး	-12.0049
ဒငါတိုန	-12.0049
ဒေါ်ထားထားရီ	-12.0049
ဓ့အ့င်္ံ	-12.0049
နေခြည်နု	-12.0049
နှုတ်ခွန်းဆက်သ	-12.0049
ပုသ်သီတင်း	-12.0049
ပျပျ	-12.0049
ဖွဲဖွဲ	-12.0049
မုန်ဒမ်း	-12.0049
မျာ့း့့	-12.0049
မွဲခြောက်ခြောက်	-12.0049
ရပေဦးမည်။	-12.0049
ရုပ္ပတိ	-12.0049
လိုရီယင့်	-12.0049
လေးမောင်ကျော်ထူး	-12.0049
